/**
  ******************************************************************************
  * @file    network_1_data_params.c
  * @author  AST Embedded Analytics Research Platform
  * @date    2026-07-04T15:07:33+0530
  * @brief   AI Tool Automatic Code Generator for Embedded NN computing
  ******************************************************************************
  * Copyright (c) 2026 STMicroelectronics.
  * All rights reserved.
  *
  * This software is licensed under terms that can be found in the LICENSE file
  * in the root directory of this software component.
  * If no LICENSE file comes with this software, it is provided AS-IS.
  ******************************************************************************
  */

#include "network_1_data_params.h"


/**  Activations Section  ****************************************************/
ai_handle g_network_1_activations_table[1 + 2] = {
  AI_HANDLE_PTR(AI_MAGIC_MARKER),
  AI_HANDLE_PTR(NULL),
  AI_HANDLE_PTR(AI_MAGIC_MARKER),
};




/**  Weights Section  ********************************************************/
AI_ALIGNED(32)
const ai_u64 s_network_1_weights_array_u64[25251] = {
  0xbccb5c103c8a6178U, 0x3deb4a8c3d898ee6U, 0xbd04f5e8bb889880U, 0xbdcd65babdb457b2U,
  0xbdf3dc8abd5218fcU, 0x3dbbc20a3de7d0a2U, 0xbd8e071c3dca358eU, 0xbd645f543db8e5d6U,
  0xbd30c6f43d7a84d0U, 0xbd82286a3d562470U, 0xbda485263d66dc34U, 0xbd8613203de96ba0U,
  0x3de8280c3de09b98U, 0xbdffc660bbb30fc0U, 0xbdd7a0ecbdddcac8U, 0xbdb2187e3d8f8b48U,
  0xbd46fa54bdd6a996U, 0xbd3c3cfc3d463f24U, 0xbceacf683dea9578U, 0xbdd219c83de0a216U,
  0x3da2c7d03d9cb63eU, 0x3ca0f6083dbfc3c2U, 0xbd20e3b0bd9f3442U, 0xbd74de40bdd2910aU,
  0x3d50ae50bcefc670U, 0x3dd23a80bda6bb32U, 0xbdf1afc2bc3882d0U, 0x3dc6dd4ebc041340U,
  0xbc180a30bd8c1ae0U, 0xbda9c9a23d182868U, 0x3bef81603d99e4b8U, 0xbd4348283b0f25c0U,
  0xbdf37dfcbdb1b8eeU, 0x3db293a6bcd9bd00U, 0x3d514b843d6bdeacU, 0x3d868892bdebb67aU,
  0x3da527babd8e1356U, 0xbd9df0f0bcf61b80U, 0xbce1e188bd69dc64U, 0x3d24f5743dcbde06U,
  0x3df108343d4870a0U, 0x3ddb8852bde223b2U, 0x3d4c9f34bc1a1e20U, 0xbbef25c03d61acd4U,
  0xbd87cfac3c9c10c8U, 0x3d5638743c24c380U, 0xbccb5c68bcfc57b8U, 0xbdc7d68abd83d696U,
  0xbc966b70bd30888cU, 0x3dc89268bd9e04feU, 0x3db675b03d8100d4U, 0x3c65cf90bd85c70aU,
  0xbd787e283d9d0f50U, 0x3d18b2acbd369078U, 0x3d3ec6dc3dbdf7feU, 0xbd6ce6843db69ed8U,
  0x3d856bbc3d13ac4cU, 0x3dd0196a3d5ba454U, 0xbd99f596bd96301aU, 0xbddbf9923bdd4a00U,
  0xbd7def5c3dabfbf4U, 0x3db2f468bda9c94cU, 0x3cf676103d9faba4U, 0x3dbfb99abd99ed72U,
  0xbd7bd1403de57dc2U, 0x3dbdd5243de4f5a6U, 0x3dfe442cbdb718b0U, 0xbdfe1a243da847e4U,
  0x3db112543d74834cU, 0xbcb13ac0bd6cad0cU, 0x3d4e57c8bd02b004U, 0x3df9c4083d2d1f1cU,
  0xbd397f44bd80141aU, 0x3c8673b03979d000U, 0xbd5fdef4bc04f080U, 0x3cf888c0bdbc837cU,
  0x3dcd400cbd5fa8f0U, 0xbc6423103bb0c5a0U, 0xbdc0832abbfe8e00U, 0x3c60e5f03d52649cU,
  0x3d19cefcbdcd603eU, 0xbd3c3708bbb043a0U, 0x3dbaede23d610cd0U, 0x3d715474bdc84654U,
  0x3dfc45da3d5f0ed4U, 0x3c9d8fb8bdfe2668U, 0xbcabf608bd56acfcU, 0xbc960c30ba2feb00U,
  0xbd5ca2c0bc12aef0U, 0x3de038d8bdd96de4U, 0x3cef8a103dcd6822U, 0xbd921a00bdf9a3a4U,
  0xbc12bd00bd145af8U, 0x3d21a38c3cbf3960U, 0xbdc5ff54bcc98790U, 0x3dcbe0e23cfc4460U,
  0xbcecacf0bd01b6b4U, 0x3dda0fe83dfce864U, 0xbc25ece0bd80c75eU, 0xbdae6c3c3c1b55e0U,
  0x3bb51cc0bdad1e5aU, 0xbd76edd83de301d2U, 0xbd9d41323dec8d0cU, 0x3d1e3948bbf2eca0U,
  0xbd305474bacf9480U, 0xbd019a28bd9f44d8U, 0xbcd93268bd199aa8U, 0x3c1b5130bdb739ceU,
  0xbde31e4a3d5eaa18U, 0xbdd7ea0e3d901b20U, 0x3cd9ebe03ce04938U, 0x3ca766483cea7718U,
  0xbd060620bda5c996U, 0x3cbd0728bd823c92U, 0xbd16cffcbd7a8834U, 0x3d5a83c4bd83b3e6U,
  0xbc1237c0bcda3418U, 0xbd25d7dcbd7b331cU, 0x3d1fbb40bd9d95a0U, 0xbdedb654bde6f456U,
  0xbdd6d3643d42c1b8U, 0xbca4c770bc565390U, 0xbc018870bd060bf4U, 0xbc468d703dc08a0cU,
  0x3d7a38b03d87c432U, 0x3df381ec3dcdac20U, 0x3d42404cbda19a3eU, 0xbddda912bdf4f4faU,
  0xbdc5f2223d827f5aU, 0xbc0878a0bd534304U, 0x3dba79ac3d182f34U, 0xbd93ec4ebd470ed8U,
  0x3df80ce63dfeaa14U, 0xbc3f3f80bd4e8688U, 0xbda923343da362f0U, 0x3d4e17ec3db35190U,
  0x3bc487e03da8c58aU, 0x3db451de3d7e1e64U, 0xbcf3d2283d98d522U, 0x3daac1e63da267baU,
  0x3dfadb58bd951cdaU, 0xbc83d698bdfef622U, 0xbdcd4f02bc057750U, 0xbde4343abddec262U,
  0xbdc3a6de3d968c5aU, 0x3dfe00343ccf5ad0U, 0xbc16ec50bdfca696U, 0x3d2e9234bc69c110U,
  0x3b05f2003d10c838U, 0x3daaf568bd135b98U, 0x3d1a8788bcec42b0U, 0xba71e100bde02422U,
  0x3dd4025ebb118d80U, 0x3d54fe803dd3a69eU, 0xbdd9750abd9d9e10U, 0x3d86d826bddf7d0aU,
  0xbdb1eb86bdb2b57cU, 0xbcdd2b68bd28af90U, 0x3d889e92bdc29e58U, 0x3da67132bd96ca52U,
  0xbd128ca03d88db60U, 0xbd1d6ebc3df0c6eaU, 0x3bb6a4603dfcfec2U, 0xbd6389d0bcf6c818U,
  0xbdf6f0babd890a96U, 0x3ac3d780bd202e4cU, 0x3d112b1c3dc7bec6U, 0x3d2e6d64bd82656eU,
  0x3c56b5903d4f2008U, 0x3d026240bdb5ca9aU, 0x3c13a9c0bdd99dd2U, 0xbb165840bbb32d80U,
  0xbc459ff0bb9dc840U, 0xbd11b1943d956648U, 0xbd945c3e3cc294a0U, 0x3caa38f0bd8bf31aU,
  0xbba290403dce8572U, 0xbdf2448c3dfc8cf6U, 0x3ddfdb70bc924510U, 0x3bbf8ac0bd45b038U,
  0xbd8681603d91a7d0U, 0x3d8ce658bddb42aaU, 0xbd8bf5d63ddf525eU, 0xbd926b323d7f3248U,
  0xbd11c7a0bde36d70U, 0xbdafd7983ca89b18U, 0x3d11fbfcbd71478cU, 0x3d546b983dc25992U,
  0x3df7d6da3d0a116cU, 0xbdafe666bd6fe620U, 0xbddafda83c44e1b0U, 0xbdc53d58bdaa0b24U,
  0xbdcee6a2bdc5db4cU, 0xbc6731d0bdbf3530U, 0x3dcaaedcbd8830d0U, 0xbde4fec83d0f0260U,
  0xbd302474bd49eec8U, 0x3dbc92323da68c1cU, 0xbdc0033cbcf11cf0U, 0xbd9aee4abd5dd9e8U,
  0x3c16c8103daf45eeU, 0x3df32eca3dce8d34U, 0xbdd8284ebd4887e0U, 0xbd1685b8bd563474U,
  0x3d305670bce38eb8U, 0x3da2052c3d65a6f8U, 0x3d5378f83d97a0b8U, 0xbdf76a703d9f7b92U,
  0x3d384c903ca2a0b8U, 0x3dfdbecebdad2f70U, 0xbd0ed430bd760e50U, 0x3defa7cebd45ed68U,
  0x3bc51ba0bdf4ad90U, 0xbdd09a54bdfebc44U, 0x3d8ea966bddfcc88U, 0xbdd5552c3d228c10U,
  0xbc3759f03df2c35eU, 0x3cd083083d456d9cU, 0x3dfa613e3da6dda4U, 0xba6ece00bc860fd0U,
  0xbcdae4b0bd9d4506U, 0x3dcf89eebda1a652U, 0x3df214063cc11f18U, 0x3c8a7368bdf41fe6U,
  0x3db3174a3d06d524U, 0x3de57a623cb585f8U, 0x3d2e965cbdf9b918U, 0x3bf19c203d963800U,
  0xba285f00bdde380cU, 0xb8b0d000bd97e444U, 0x3d9aa6763dca97e4U, 0xbd93d2683d0029d0U,
  0x3be0e3e0bd779250U, 0x3dd83856bd964bdcU, 0xbd383748bd88145eU, 0x3d2fcf10bd8d6c92U,
  0xbd9490223b6de140U, 0xbd3f2ea0bb0dff80U, 0xbd45d084bd2fe7ecU, 0x3dea070cbde14b64U,
  0xbd2366483ce9af80U, 0x3dd8ac5e3b9239e0U, 0x3d698d383ded1af4U, 0xbc99ca903d966764U,
  0xbdf46424bb69fb40U, 0x3da0d02abdcdc006U, 0xbdeb43cc3dd81e86U, 0xbddc8856bd5deb44U,
  0x3cfbfdc83dec58beU, 0x3d5869e43d2a078cU, 0xbd368028bd4ebda4U, 0xbdc9f7a63da119bcU,
  0x3d909722bd87db18U, 0xbd888b6e3d2949ccU, 0xba911c00bde10202U, 0xbd85157ebd235e1cU,
  0x39d58000bb24b300U, 0xbdfbe1aabc29b1a0U, 0xbc4b1be0bdf218c0U, 0x3dd6680e3d91afe2U,
  0x3cdb99b83daf0b6eU, 0xbde61e9ebb3e07c0U, 0xbd23e6143d0f1ee4U, 0x3c212a80bd3e6914U,
  0xbd6a520c3d815a48U, 0xbdac9e343d1c511cU, 0x3d60a0a43d97ec2cU, 0x3c69c0c0bdd7bb2cU,
  0xbdacf22c3d8ed77cU, 0x3cfe5db03947c800U, 0x3dfc86863d9e8320U, 0xbda02b26bdf0bdaeU,
  0x3d1ddb183dca4b4eU, 0xbdb59e12bded208aU, 0xbcea5e583d8877a6U, 0xbd447d543ddc832aU,
  0xbb306b80bb7b88c0U, 0xbdfbc87e3d163540U, 0x3cd4d3203dfd3564U, 0xbcdd03a83d7b0cfcU,
  0xbde0e92a3d90f3fcU, 0xbdff7370bdb3e044U, 0x3dabb7663c29c260U, 0x3d89e4423c15e400U,
  0xbdd64e0a3d9ee67eU, 0x3da4f4e0bd462be4U, 0x3d767eacbd979838U, 0x3d84bace3d7184dcU,
  0xbd035ee83be0c480U, 0xbccfbdf03db5c9d4U, 0x3df509b2bda8dc4aU, 0xbdf54ba0bb9bd580U,
  0xbd756f94bda0ee88U, 0xbcccc6183d861cecU, 0x3c8627683d180c80U, 0xbd67dfd8bd7cd1e0U,
  0x3cc61490bd6b6e3cU, 0x3d290df4bddc4cd6U, 0xbd36b820bd9f1436U, 0x3c805c80bcc78de8U,
  0x3d6674c0bd9c6244U, 0xbdfe1e14bc074140U, 0xbdf847fabdac9da6U, 0xbd7a53883d79a76cU,
  0x3db23f0cbd4b7c58U, 0xbdb0dec63d059020U, 0x3c6fb7303b6e6b40U, 0xbdd73a52bbee6b80U,
  0x3d950e5c3de026e0U, 0x3ce48ef8bc41bae0U, 0x3b675c00bdf978f0U, 0xbd1bb65c3d86dd9cU,
  0x3da1d6423de48e06U, 0xbdc4ab863d714294U, 0xbdb9b2163d17502cU, 0x3d11d66c3db3502cU,
  0xbdbecda2bb90d520U, 0x3de37ef6bbeb57a0U, 0xbd2989783c538ea0U, 0xba6a2b003b8d4fc0U,
  0xbdb975ec3dbfa10cU, 0x3ca81b78bdbb3e7aU, 0x3dd458dc3dec5450U, 0xbda782623d766e20U,
  0x3df220d8bd088300U, 0x3c179370bc44d720U, 0x3dd3e78e3dae891cU, 0x3d5987b43d24d2d0U,
  0x3de24340bce1a588U, 0xbda73edabdab32e2U, 0xbdb80f5ebd94d158U, 0x3d3c80ecbdaab830U,
  0xb918dc00bda52ae8U, 0xbd7c1c7cbde39b48U, 0x3de60a3e3d815d54U, 0xbce445c0bd45464cU,
  0x3d3c2e603c707820U, 0xbd5dc230bd83291cU, 0x3d7be2503d6231ecU, 0xbd1c014cbd10ea0cU,
  0xbd6764183d1559f4U, 0xbd8f6424bdd67c04U, 0xbddfac28bc6f3420U, 0xbc1162a0bc89d938U,
  0xbde7857abdcce634U, 0x3c609dd0bd10f26cU, 0x3b84b6e03dd71d16U, 0x3df781d8bdc76bfcU,
  0xbde8e8023d3d2c30U, 0xbd31bef43d3f4eb8U, 0x3dc994e03da6ab7aU, 0x3d7995f43de82506U,
  0xbde9b6063d5943e8U, 0x3d83a85ebd4118fcU, 0x3d332d203d6d4b30U, 0xbdc43892bc88ad00U,
  0x3d9fb9ee3c8603f8U, 0xbc833250bd94eeeeU, 0x3daf77743dcd7fc6U, 0x3dbf8f963dc2260eU,
  0x3de7f94ebdc2e04aU, 0xbd01bbbc3da1c186U, 0xbda6dd9ebd9c0036U, 0xbc940870bda5979cU,
  0xbded788cbd984b46U, 0x3d8dd30e3c079080U, 0x3d799048bdd5fffeU, 0x3d0407a4bd6b6ea0U,
  0xbd8fc644bd32680cU, 0x3d200e78bdf487beU, 0x3cc399283d20e37cU, 0x3d7d83243df5f9caU,
  0x3ded413ebba21160U, 0xbde414503dcf8a0aU, 0x3c8b72b0bc0d6420U, 0x3d80c80c3d4a5728U,
  0xbd606a003dd0eb9aU, 0xbd6a3f903dd70756U, 0x3ce3cd503d0a3840U, 0xbdabb1a03dfec55aU,
  0x3d2b92683db966aeU, 0x3dce42163dfcb392U, 0x3dd9e17ebdc52e30U, 0x3df0d3d43c5a66f0U,
  0xbd0313103d5d0594U, 0x3d80c82abdd8516aU, 0x3dc8d3d83cfb8900U, 0x3ca9b5603d57b930U,
  0x3cc199383df20ccaU, 0x3b56c1403c274930U, 0x3d16bc543d9cd2c2U, 0xbd8d9960bc835298U,
  0xbdc9ca7ebdb29100U, 0x3dbbf23e3c43ac40U, 0x3cbd4cd0bdef236eU, 0xbbe00020bdb4c81eU,
  0x3d363f183de2d0b4U, 0x3d6e14083d925256U, 0x3d5895543d2b6718U, 0xbde393683db60856U,
  0x3dcbe788bd195db4U, 0x3d87a1d03cdfb780U, 0xbdbf647a3ca91e78U, 0xbdb7398abcdf26e0U,
  0x3cd6a7403dc11e52U, 0x3df32404bb526740U, 0xbd6d86f83da403eeU, 0xbde52b7ebda2576aU,
  0x3cc9fc883db02516U, 0x3c8084103db711d4U, 0x3dafe726bb5d92c0U, 0x3ba955a0bdc8ca28U,
  0x3ba65300bd397594U, 0xbdad82e8bba56640U, 0xbd54e67cbd4cf73cU, 0x3b941440bd8e8968U,
  0x3d48f3503dc1f3d2U, 0xbbcb67203dbda112U, 0xbdb1c07e3d5a5d84U, 0xbdf459a0bd2b8f9cU,
  0xbc9b7880bdff7fd6U, 0x3ccc9a18bdc96cacU, 0xbd8c566abcd97ff8U, 0x3d9a525abc5a7e50U,
  0x3dfb6b283dbf8be0U, 0xbdf17ff43a1f3f00U, 0x3db2593abdc147a0U, 0xbd8694823dc76cd8U,
  0x3df95e443c9d91e0U, 0x3de6fb44bde093d4U, 0xbde35f48bc87b700U, 0xbddae7b63d84abbaU,
  0x3db94918bdb4c3caU, 0xbd09e4503db16df0U, 0x3cc4abd83c8d4aa0U, 0xbdf43380bde7598cU,
  0x3d824c14bcfbc0e0U, 0x3cff7560ba5aea00U, 0x3ccb18a83de3a7b0U, 0x3d2b6f7c3dafe732U,
  0x3cef28783df5d33cU, 0xbdf88cf6bcaf31d0U, 0xbdcd6f623c7834f0U, 0xbd62d63839c9a400U,
  0x3cc2a958bd248558U, 0x3da990e8bdc490d8U, 0xbd802b22bd0d0a08U, 0xbde243fe3ddc8c42U,
  0x3dc3e3e83d9e2dfeU, 0xbdc68484bd943510U, 0xbd6527a0bc5b8490U, 0x3deeda4ebd051414U,
  0xbdca3bcc3d0f76ccU, 0x3de36606bd8b2864U, 0xbc4a9150bd3add58U, 0x3d98366e3d2574ccU,
  0x3cf9c1d8bb14d2c0U, 0x3d6eb074bddfe406U, 0x3d6a95b43db827c8U, 0x3d9a8070bde13672U,
  0x3d6b2ab4bcaae578U, 0x3df490c03d7acd50U, 0x3c4bad90bdbabda0U, 0xbcaa83383d93d918U,
  0x3cfd41183cca4160U, 0x3c429e703dc4600aU, 0xbdd59ffebd1e6384U, 0xbd40940c3dfbb6f0U,
  0x3dc8944c3d4868d4U, 0xbc3d03a03dc0fc08U, 0xbd26f4ac3d4e7450U, 0x3d2d9d643d4396f8U,
  0x3ddeb8c23d041980U, 0xbde62e60bd9e611aU, 0x3df2fef6bd6c40f8U, 0xbcee7da0bcb45a70U,
  0xbdb51f76bd1291b0U, 0x3c1deb703dad7ef6U, 0x3dcc33a03cfc0b08U, 0xbdf0469cbd226098U,
  0x3d064770bd8d2ef2U, 0x3c4b2430bc871ad0U, 0x3dc5caba3d1155bcU, 0x3c21e4e03cda09d8U,
  0x3dae41d83ca6dc40U, 0xbd3dfc68bdf7c870U, 0xbc7de090bc52d7f0U, 0xbdb6c5ecbda2fbb8U,
  0x3df26066bdc3d9f6U, 0x3dcfa1d83d420b38U, 0xbd655340bceecac0U, 0x3b238d403db5b040U,
  0xbd8519ecbc2ef610U, 0xbdcc7576bd4f18e4U, 0xbdad4c6abb71cd40U, 0xbcac1e803b8960c0U,
  0xbdd882bcbdbbdbeaU, 0xbdc4b5ee3bd94860U, 0x3db1bb103dc4d6b0U, 0x3cbe1e903dce4d20U,
  0x3c9054c03da4aa82U, 0xbd92af7abcbf5b80U, 0xbda321f03cb5b9c8U, 0x3dcbc00a3d97d4fcU,
  0xbd5f4e0cbde38dbcU, 0x3db7cbba3d8df3e0U, 0x3dd3324abdf909f6U, 0xbd878f7a3b746b80U,
  0xbdaf9ee2bd3369c0U, 0x3d094968bd1a3d5cU, 0x3dbfd91a3ce76988U, 0x3d0cfe143ddfe238U,
  0xbd3593a0bdeacd6aU, 0xbdbd8300bdf2473aU, 0xbd9aeb3cbd73a2f4U, 0x3cc76da03d8f9416U,
  0xbd8de15c3c6efba0U, 0x3dc7b92ebde297c0U, 0xbcf9e5803a862700U, 0xbafdcd803df3f4ccU,
  0x3da0136abbadcac0U, 0xbd5884203dfc0ca2U, 0xbd7871a8bce8a148U, 0x3de4c9d43c06d200U,
  0xba8153003c469f20U, 0x3dcf6894bd029494U, 0xbd4187b0bdc952d2U, 0xbd87e6b63dc18152U,
  0x3d09e4bcbd203ba0U, 0x3d9f7cb0bdca5fb4U, 0x3db7d61ebcb45828U, 0xbdf0b4883de12fb4U,
  0x3dd07662bcf794b8U, 0x3de11a04bd91010aU, 0xbddadd24bdcee14cU, 0x3d505d943d8d6532U,
  0x3dbadefabdc996ecU, 0xbcf506d83ba11320U, 0xbda95d68bdb52208U, 0x3da062b83d8660fcU,
  0x3d3e95583cf0e2d0U, 0x3bd04ea0bdc56c2aU, 0x3dea001e3c06d7b0U, 0x3de680f23df47b40U,
  0xbde517febdd54068U, 0xbbecd2c0bca92268U, 0x3de05f5cbd8f8770U, 0x3db2dce83dbd8c24U,
  0x3d413c483db0a634U, 0xbd4c80643d3b25b0U, 0x3ddc887a3d9a7e1eU, 0xbd165d1c3d32fe50U,
  0xbd33e3e83ddd07aaU, 0x3df1873a3dbc1ac2U, 0x3c82f688bd3df3d0U, 0xbdceed683d2b0a54U,
  0x3dea15363d8599dcU, 0xbdb2cb6c3caa87b0U, 0x3d5b29003d1bb484U, 0xbc901ce83da00bbaU,
  0xbda228483d159218U, 0x3daba5a4bcaa2770U, 0x3c839f683d0386d4U, 0x3d48a6683dbdb9e4U,
  0x3d7fb5bcbd4aa078U, 0x3d332f1cbda8071aU, 0x3d031b783d91748aU, 0xbd9b1364bda870caU,
  0xbd0073b4bde62a26U, 0xbd5a5b7cbd8e9c94U, 0x3d398c4cbc9e2bf8U, 0x3dab3f0e3dc232eaU,
  0xbc1011a0bd25dd24U, 0xbdee1df0bde5f11eU, 0xbd21519cbb0f9f80U, 0xbd01dd6cbd3d0d68U,
  0xbb4920403d75b68cU, 0x3db4a4cebc74f400U, 0xbdfd302cbd811d7eU, 0xbd0bc4c03d413f7cU,
  0x3dbc83e0bd87fb5cU, 0xbdffbf3ebdc7effeU, 0x3dc8d4b03d2f8c08U, 0x3d70ed60bdbe7d80U,
  0xbdb0dae43da68854U, 0xbdfdf5cebd12acb4U, 0xbd99eca63de554f2U, 0x3d14ea48399e8c00U,
  0xbdbbc8163dc9e1b4U, 0xbdc5f8ba3dbd35d4U, 0xbde09b763cad7708U, 0x3dea5968bc789b70U,
  0x3cdab210bc8e2a88U, 0x3d814d243cfc8a80U, 0x3dcc5e78bd9fd2caU, 0x3d8a0e70bd4b2a38U,
  0x3c4dbfd0bdc46d86U, 0xbd89d1c4bd57e690U, 0xbcb042503d745974U, 0x3c82bdd83df9104cU,
  0xbd13dd883dd89622U, 0x3d01b3acbbce0e00U, 0xbd35ea18bd42d64cU, 0x3d43a91cbca70248U,
  0x3df003d6bd9f083eU, 0xbdf3d7323d2a9434U, 0x3debf8d83df107acU, 0x3dcdb37abd5a6cacU,
  0x3ba254e03d8b0246U, 0x3d4010ecbd001284U, 0x3de62b263d26b1e8U, 0x3bd885003da15b80U,
  0x3d8e2f52bc3231b0U, 0xbdf048f23d9abeacU, 0x3d28ae68bcddfb98U, 0x3c3f16b0bca9ee30U,
  0xbdd253603d99f310U, 0x3df98e303dc2e7dcU, 0x3d1a41d43d6d82a4U, 0xbcd05f683cc3be68U,
  0x3dddbdb63ccf72b8U, 0xbd553138bd704fdcU, 0xbd080f243d9bb13cU, 0x3be58c203d8c31aaU,
  0x3de80cecbdbe7dd0U, 0x3c7937203dcc83c0U, 0x3dcf45843df726caU, 0x3ded50943d1d5e60U,
  0x3da683123db32ad6U, 0xbd3634dcbde6930aU, 0x3d66d108bccb6f10U, 0x3dae24143c3f2210U,
  0x3ba072a0bd863262U, 0xbdd606ca3d9d4018U, 0x3d8c81cabdcf1aa6U, 0xbd960a803dad85baU,
  0xbbffc0803db94922U, 0x3d58b3a0bd8c2c1cU, 0x3de9343c3ce87be0U, 0xbd6120d4bdc2d2d8U,
  0x3db23558bdeb8ceaU, 0xbc88c7683b8374e0U, 0xbbb88740bdd44124U, 0xbdf25aba3d387fa0U,
  0x3cd5f0783c9896b0U, 0xbc86fec8bda77f32U, 0xbd3c00b0bc8cb6c0U, 0x3da12fa2bc965798U,
  0xbd046bfc3bda2f60U, 0xbd0030a03dcd9b56U, 0xbbae55a03dac3f84U, 0x3da170963d735d18U,
  0x3c0cc780bc006d90U, 0xbcd809583da8145aU, 0xbd4991a43ced6170U, 0xbdc266643dcfe050U,
  0x3ca0f458bc8b0600U, 0x3dcd6c503dc92114U, 0xbc812880bd8f8772U, 0x3cf593903d82215aU,
  0xbd901ffabd02ebb8U, 0x3d67eb983c5cdaa0U, 0xbdd8ba083dc411c4U, 0xba928f803debf6c0U,
  0xbc72f1d03d040260U, 0x3dfdda52bd568d94U, 0x3ba595403d812134U, 0x3d995e4c3de0388eU,
  0x3b90f6a03ded9b94U, 0xbd00de70bd8c27caU, 0xbda5ad643dbb7eecU, 0x3b9ecce03dec7a80U,
  0xbd5cd8dcbdddd538U, 0xbdb4991c3cdbe4e8U, 0x3def5940bd7b8e34U, 0xbdb51e083db2c74aU,
  0x3dbe2d1c3cabdec8U, 0xbd3269c83ac64200U, 0xbdcd09cabd7fd164U, 0xbd12c8ac3da8bff2U,
  0xbda2b6babda5d6c8U, 0x3dd09bcebd3a02d0U, 0xbdacfb023dc741baU, 0xbd8d15febd60293cU,
  0x3b027e803c861820U, 0x3bed92403c7723c0U, 0x3be36c003da0ad2cU, 0x3dc673ae3d7f7978U,
  0xbd92fe043db02fe4U, 0x3ddff4443da74b12U, 0x3dd692debdc38070U, 0xbd0c9800bda6fe24U,
  0xbd80fb243dd01d10U, 0x3d878af4bd145b60U, 0x3de79778bdf2eee6U, 0xbcbc43503dd6d3a2U,
  0x3ddb82fa3cdedd90U, 0x3dbf6694bd0a93b8U, 0xbdf78e463dfe9b36U, 0x3deb7d78bc1c4570U,
  0xbd53a9503dda0574U, 0x3dbb75babbb1ac40U, 0x3c9fc1583ddf5f70U, 0xbdc9ae22bce6ae30U,
  0x3d85ef3ebca5e508U, 0xbdcb71d23d51e364U, 0x3c6e4410bdff3c5cU, 0xbdf35c68bc8b00b8U,
  0xbdf007a83d1114ccU, 0x3dac3da03cb09598U, 0xbdc56ce4bd30e428U, 0x3d03df60bcc55b90U,
  0xbae8a9803d0fe0ccU, 0xbd5b89f03da4319cU, 0xbd05d6e4bdd65afeU, 0xbde9c298bd0f5c4cU,
  0x3df4dc9a3dcdd2e0U, 0x3d4c8c80bd3b4ffcU, 0xbd8045f03d6e1decU, 0xbdecbad8bd3d23b4U,
  0x3cf24d383d9367a2U, 0x3c4338d0bc5edbe0U, 0x3d3fd3fcbd8ba69cU, 0x3dbffa923d882612U,
  0xbc3c3d803d6843d0U, 0x3cd585783dc2fd64U, 0x3cf7ec503bc23c00U, 0xbdd0c5603bb5d8c0U,
  0xbcc65a883db1ade6U, 0xbdf6d2483b568140U, 0x3d8144403d2bb7c8U, 0xbdd8c3803d8b0aceU,
  0xbde60304bb34e040U, 0xbdd49dd0bd940d48U, 0xbdfca28c3d994230U, 0x3dad70e4bd3bf114U,
  0x3dbd79ea3da63342U, 0xbd615fb43dd0ede0U, 0xbd8e8886bd0aa400U, 0xbd8c9f20bddb3df8U,
  0xbd8f70c8bd8de59cU, 0xbdd4c328bcef4d00U, 0x3d8691ae3bdf7740U, 0x3c82da503da61772U,
  0xbddda12ebdf7fb8eU, 0xbd1e2c48bdbb947aU, 0xbd129b103dc7f996U, 0xbdca8e0c3d06af7cU,
  0xbc9b1f10bb29a840U, 0x3d42a344bdddaba8U, 0xbd646738bcc635a8U, 0x3db435babd4fb950U,
  0xbda6cf543b19c5c0U, 0xbd522e70bd424654U, 0xbdbb61d23dcbe80eU, 0x3d9cc9dc3d7c9958U,
  0x3d9633a2bdae0386U, 0xbdf58fb2bd6c0bb4U, 0xbd81ac643d23d3e8U, 0xbdea8692bdbb41d6U,
  0x3db14cf4bd869a80U, 0xbceef210bcf9dbf8U, 0x3dc5ed78bcaf87f8U, 0x3d8caf043d90c9e0U,
  0x3d30f0ac3ddad0a2U, 0xbda0e3f2bd5cd014U, 0x3cd9b2d8bcb3f970U, 0x3dcda798bdd7543cU,
  0xbc9ca608bdf109aaU, 0xbd2daf643c75ab30U, 0x3de42e1a3d1bb8bcU, 0xbc2a7af0bd7e0070U,
  0x3db481ecbd6b5938U, 0x3dffe79ebd862816U, 0x3cf37f883d3ff4e0U, 0x3db25e80bcb57430U,
  0x3d0f382cbd42b4dcU, 0xbd91b04e3c3b39e0U, 0x3d8066263dcd051aU, 0xbddb186abdcfa232U,
  0xbdb58ce83cedc850U, 0x3cf4fc28bdcee344U, 0x3d1f4e54bdbf6556U, 0x3c52e0603db357aaU,
  0xbdd6afe43ccb4d38U, 0xbd226d90bbd98100U, 0xbd8443803d5512d0U, 0x3d7a89343d2717ecU,
  0xbd4d18c8bd30ca68U, 0xbdd7321abd44e150U, 0x3db233aabde30c64U, 0x3df27c88bdddf164U,
  0x3dc6d6c63dbd1760U, 0xbdfc56c63c761f00U, 0xbde341c8bd1b39ecU, 0xbdc11e86bd8cb8e8U,
  0x3de068623d972484U, 0x3c897a183dc5380eU, 0xbca47f70bd3ff694U, 0xbda5d8b0bd2bafe4U,
  0x3bf9f420bce81008U, 0x3d91c64e3d763628U, 0xbb8ffb00bd9fbd34U, 0xbcc9bb483d2ef764U,
  0xbdabe8283dc6ca0cU, 0x3ded4a18bd9b538cU, 0x3db733f6bdd9a576U, 0xbcad91103d64a7e0U,
  0x3da0971c3cdab6a8U, 0xbc95cd503bf6b140U, 0x3c4e1f203dd6d514U, 0x3c9b5ed0bd2d6f18U,
  0x399fe2003de49e7cU, 0xbdc223be3c918858U, 0xbdd2b87abd9cfb8cU, 0xbd2a2f443c806480U,
  0x3d76b910bd0d0cc4U, 0xbcb0ac183d64fd6cU, 0xbd924c843dadc278U, 0xbdf5cbd0bdde0eccU,
  0x3d54f7803ce3f170U, 0x3cf80bb03d45d260U, 0xbdfe5bf63b778e40U, 0x3dbdcde2bdc65e18U,
  0x3d19683c3cbb4950U, 0x3dbc12cabda4bf14U, 0x3da4c334bde3ac34U, 0xbc2030b0bd7323c4U,
  0xbdc992663dd15c9aU, 0xbcc79bc8bdc89a72U, 0xbde3a1dabcd211c8U, 0x3bc144e0bd21dcccU,
  0xbc997da83dc067ecU, 0xbdccc5fc3d957fb0U, 0x3ddc21883da0a13cU, 0x3de4e5103d7e588cU,
  0x3de1ea043b6fed80U, 0x3b7d74803dc4e03eU, 0xbdf1e63abd91a79cU, 0xbd82b6703d99cadeU,
  0xbdfa03923d5b0f8cU, 0xbd50b948bdd441a8U, 0x3d7ea3403c130610U, 0xbdbce03e3d6166b4U,
  0xbdc229fabd538cc8U, 0xbccc25483d7b5a50U, 0x3de95cf0bc7f0e30U, 0x3ddfedbebd419f58U,
  0x3cbddbb03c94e190U, 0x3d8d283c3dd675c6U, 0xbd23b0bc3d57be14U, 0xbde517ec3d615444U,
  0x3d5ff0ecbcee3c58U, 0xbd0dcb48bcd0f098U, 0x3d8b175e3c485080U, 0xbdf3ab44bc954680U,
  0x3db72ecc3d3eaf34U, 0xbce731e83d338b58U, 0xbd07fd483d1c2db4U, 0xbda2f9e4bccb3800U,
  0x3c05b3f0bd7066d0U, 0xbdb2b852bda74238U, 0xbdd062cabd7d0f28U, 0xbb9134a03d820826U,
  0xbcdd0a98bde21fc0U, 0x3d79e950bd111a6cU, 0xbd62dfa83dfc5a22U, 0x3db8f25e3ca8a6b0U,
  0x3ac45800bdf35638U, 0xbbc8d6603c0bdd70U, 0x3d054d5c3d1a63d4U, 0xbde9b6363c5ea590U,
  0xbdae94ccbc2cf690U, 0x3d97c4a6bdc62530U, 0xbded11a0bdae15fcU, 0x3dba72ba3dec8180U,
  0x3d83bddcbdba08f6U, 0xbb66b4803d059db4U, 0xbd5b88b43ce4efa8U, 0xbd9db34cbd7a8630U,
  0xbdb76b1cbd94ad9cU, 0x3dd53b28bdf3dee6U, 0x3d82c8de3c0d4f30U, 0x3d80f05cbd4876bcU,
  0x3d439904bdfa1b36U, 0xbd244520bd99df76U, 0xbd0b598c3db546a0U, 0x3dc0bbdabdf73a30U,
  0xbad7b7803bf85dc0U, 0xbdfcf646bdc02420U, 0x3cecef103d9238c8U, 0x3dcf9a46bd2a07d4U,
  0xbc763290bcccb138U, 0x3de08dca3cad8a98U, 0xbd8e289c3df12684U, 0x3cf493a83d37c4c8U,
  0x3dfad2bcbcfb9990U, 0x3dc65c76bdbc30feU, 0x3dd0569e3d43ee78U, 0xbda1207abcf1ffa0U,
  0xbc8f2998bdfc4ddeU, 0xbdd08788bd9dad48U, 0xbb8fc6a03cc2a2c0U, 0xbdf79e143dfd5ddaU,
  0x3d5060d43c83b7e0U, 0xbd93fef0bc49f290U, 0x3b6aa0c0bdd62a16U, 0xbdf70f343d82ec12U,
  0x3daf4a203be0a620U, 0xbd4d65b43cd829e8U, 0xbdf1d18a3da0370cU, 0xbd30ba643cb27a68U,
  0x3b2375403d89e6faU, 0x3d010bc0bdaa2e3eU, 0x3d2c60e43d8b064cU, 0x3d5be9e0bc52ca40U,
  0xbdbbabfebd85920cU, 0xbde182ae3d45afe0U, 0xbd770350bcf6a008U, 0x3c26d6303d5ac5f8U,
  0xbdb6748a3dc4486cU, 0x3dc728c63dae9f34U, 0x3d9145463dca2bbaU, 0x3d813eaabddc6878U,
  0xbdb22c863db66916U, 0xbc700630bcb1a8c8U, 0x3d1d70d83da2ec3aU, 0xbdfc372a3dc964a4U,
  0xbdcfb5603d4b2400U, 0xbcd305a83ddbc3b6U, 0xbdce87e2bbc35ca0U, 0x3d2634c83c6a5480U,
  0xbdb1560abb872060U, 0xbd10b15c3d60cf9cU, 0x3d89c9fcbd87be4aU, 0xbdc4ea143de69488U,
  0x3dfc5b92bdceaeb4U, 0xbda6922e3d4a262cU, 0xbcd27058bdac2cdeU, 0xbd219c88bd1ea804U,
  0x3db6aeea3d2c1f4cU, 0xbdcec39cbd19dd40U, 0x3d51bbb4bc8a86d0U, 0x3d97f4d8bd4f0c94U,
  0x3dd4aaa83de76cacU, 0x3d4f7578bc6f10b0U, 0xbdc8a0503c564300U, 0xbc8467f03c750880U,
  0x3b60eec0bdf45574U, 0xbdade95e3c02ad40U, 0xbd965d6c3dde0b7aU, 0x3d760af43d8c5c9cU,
  0xbd409c503c24c440U, 0xbd0658d03c198610U, 0x3ba720003c3bdb90U, 0x3cc830a8bd9e94feU,
  0xbdde3810bd7dab14U, 0x3d36551cbdb90c42U, 0x3dea419a3d7be7acU, 0xbcb974083d2af37cU,
  0x3d85d680bdf990b2U, 0x3d44e5203d731194U, 0x3d4208a0bdd8291eU, 0xbd57db64bcf1d4c0U,
  0x3d8357d4bcc54680U, 0xbd8d0ce43b8e75c0U, 0xbda07504bdefbe94U, 0xbcbeda583df39ec6U,
  0xbd4df7e03df9806cU, 0x3c9ec7303d8234ceU, 0xbca74db8bdf7e938U, 0xbdb332b4bde2858aU,
  0x3cbf57883c988b98U, 0x3dc21140bcd11978U, 0xbc4686303d60da18U, 0xbd9823cabc4d70c0U,
  0x3d97ec38bc95c368U, 0xbdddb74a3da90224U, 0x3dd41ffa3df946dcU, 0x3db48306bd743f60U,
  0x3d6d0df83d57d2a4U, 0x3d8a1afabdb49530U, 0xbcc8ef703b878a60U, 0xbdfc55b6bd54a778U,
  0x3c64de403dc22354U, 0x3d089e68bd29cdc4U, 0xbd87dc2ebd7940e4U, 0xba2c97003dc83b44U,
  0xbd8fec303df55f20U, 0xbc78e1d0bddea83aU, 0x3db021aabc789140U, 0x3d8126803d799d58U,
  0xbd1f51243dc73f08U, 0x3da577a03dabba08U, 0x3d61166c3cd3ef70U, 0xbc70d030bde1d4ecU,
  0x3dd52a3cbca227f8U, 0xbdb57d583dd4a1e8U, 0xbd74affc3d9dfdeeU, 0x3c91d8483d98d252U,
  0x3d8a555e3cbf97f8U, 0x3d8cbb203d397eecU, 0xbdb105363cd84758U, 0x3da96f263daedfd4U,
  0xbdf1b3c03cbc52c8U, 0xbca23d58bc3f1de0U, 0x3c7d1690bdfd64aaU, 0xbdfff1943d85fe0cU,
  0x3b1b6ec0bdcac720U, 0x3d79fbacbd6e390cU, 0xbdff5d4c3d908afaU, 0x3dd827123c63a890U,
  0x3de969d2bda51370U, 0xbdf33e1ebd83174aU, 0x3dbed63ebd6d5980U, 0xbdd23e4e3d493b84U,
  0xbde836ec3df7a378U, 0x3dd7a3c43d037af8U, 0xbde448103d454294U, 0x3d5494643d591d38U,
  0x3dfaf9dabd9209deU, 0xbb9db5403dfcb354U, 0xbcd2a1b83db60daeU, 0xbd5eb7f0bd85e244U,
  0x3cb67bc8bd4ea1c0U, 0xbd1f97bc3d61f5d8U, 0xbd754ce8bdd30f1eU, 0x3d12ece8bd14a2acU,
  0xbd3505243d565838U, 0x3d945088bc4275a0U, 0x3da4f1c63dd91a62U, 0xbd409decbd7ba1a0U,
  0x3df5cc44bdc574caU, 0xbc588f40bd910e0aU, 0xbd999242bc3d69b0U, 0x3d9cea34bcca0b60U,
  0xbdc6ea2a3de4de3cU, 0xbda4ea023d7ef7b8U, 0xb79900003df15838U, 0x3ca23d703d986cb0U,
  0x3ce0a1f03df8f364U, 0x3df8a4ecbde23574U, 0xbcfda068bd51cf6cU, 0x3db12814bcea86f8U,
  0x3c035610bdf8d112U, 0x3d94aa9a3ca05d98U, 0xbd79c3483de3a666U, 0x3dce141cbd0f5df8U,
  0xbd2af7603de716e4U, 0x3df60a6a3db8648eU, 0xbdf7ae62bdecf5b8U, 0xbdb4cf36bc8789d0U,
  0x3d91141cbd9fda00U, 0xbde3ba923dce2eccU, 0x3d2545283db82e1cU, 0x3d9e6ab6bdd7e522U,
  0x3d74ce08bd9b5e9aU, 0x3df7a9c8bd50dec0U, 0x3df285ca3d3f1cc0U, 0xbd9729923d074c10U,
  0x3bf09bc0bded1712U, 0xbcd13410bd8b812eU, 0x3dcde1f2bd7d3798U, 0x3dc2cc0a3c1b8a50U,
  0x3deff93c3d687838U, 0x3c7c29a0bc2dc4c0U, 0xbc80b3983ccfe8b0U, 0xbd544e38bdf349d8U,
  0x3d8e6de83c2e5520U, 0x3be97560bb28d280U, 0xbdbe74d0bda13e92U, 0x3d8cd676bd8f595eU,
  0x3d5a4050bda03258U, 0x3dd405203c726fc0U, 0xbd9e5ef2bd9af584U, 0x3cc4db783c3bc960U,
  0xbd770e0c3d92c43eU, 0xbd712b8cbcb40f00U, 0x3dee7482bdadcd24U, 0x3d9c46763daa171eU,
  0x3d290f7cbd9eb5aaU, 0x3df2fe7abd8c35deU, 0x3dec30a03bcbe160U, 0xbce537d8bd9bc7f0U,
  0xbc9bb1103ce276a0U, 0x3bab4ec0bd080b80U, 0x3d86bd50bddf915cU, 0xbd2fd11c3dbedafaU,
  0xbd97989cbd7e8d80U, 0x3cb784f0bdfa6518U, 0x3dae39963d83381eU, 0x3aa27380bd655480U,
  0xbc084a003dd744feU, 0x3d2bcd003dea6c72U, 0x3d13ffc0bd29b194U, 0x3df1c098bdde688cU,
  0xbd951ae43d328d14U, 0xbdaf9c463d28722cU, 0xbd9ab7523de76ab8U, 0xbdb78a723a15ea00U,
  0xbdb3cae63d4ad5b4U, 0xbd1b31243c7b6a70U, 0x3dff3ee83b936ac0U, 0x3da8678c3d857ca4U,
  0xbd908746bd01e19cU, 0xbde203823d81284eU, 0xbd8653143cc2ec40U, 0xbca0e0b0bded5b8aU,
  0x3d451be8ba888d80U, 0xbdf154d8bd1bb3f0U, 0xbdc99d703dc585a2U, 0xbde9cc48bcf0e960U,
  0xbd8747e4bda690daU, 0x3dc09ffcbc305cd0U, 0x3bb3bd00bdc03c7cU, 0xbdf09eda3c643a50U,
  0x3cda76103da98c86U, 0x3d2f42fcbdf3f3d4U, 0x3dbf5706bd300834U, 0xbda56fe0bd3fc840U,
  0xbd2d93843cb1b6d8U, 0xbc683ae0bdf44fdeU, 0x3d638870bcad5bb8U, 0xbca4e7603c546910U,
  0xbdc7ae0cbd11c9ccU, 0x3dfee85cbde0fc6aU, 0xbd7a5a88bda67a88U, 0x3da2ec403dcec83aU,
  0xbbc236e0bccc8b98U, 0x3cb8bd50bcda3d08U, 0x3dbb065c3da29c98U, 0x3deaf560bd1cc9d4U,
  0x3d9382963db3ac44U, 0x3dc6d050bc695970U, 0x3d6671ac3dac62caU, 0x3de80524bcc56370U,
  0xbdd6ed2cbc80f640U, 0xb4c80000bd12bcdcU, 0xbd4d00f0bdd2ac64U, 0xbd8e9f30bd3c0f64U,
  0x3dbea5a83cab7eb0U, 0xbcfcaa603def75d0U, 0x3dc7e80e3da3aabeU, 0xbbf048c0bd5eef64U,
  0xbd4662c83deb2456U, 0x3a51a0003d8b43d8U, 0x3de76e183db1ec6aU, 0x3dd53c923d6ebb34U,
  0x3dbd89d23bc7f1a0U, 0x3c4ab7e0bccc0d00U, 0xbb9db900bc77f780U, 0x3db5b3a63db84292U,
  0x3de25ed43d7821e8U, 0x3db1c8b4bd96d6d0U, 0xbdaa0964bdf20cb2U, 0xbcb760e83df25554U,
  0xbd672410bc9f8d70U, 0xbdcc291e3d63c354U, 0xbdf0656abcd8fe78U, 0xbbb501a0bdad6824U,
  0xbd94d058bcf39dd0U, 0x3cca89e03da5923aU, 0xbd621588bd173c00U, 0x3bcd3b00bcee2310U,
  0xbd4aac8cbdf5ef66U, 0xbddcff98bde4881aU, 0xbdb8093c3dc561c4U, 0xbd4b6e40bb126cc0U,
  0xbbe17ba0bc0bfc40U, 0x3db516563d7d8a8cU, 0x3dfd06e2bdc839c4U, 0x3b45fd40bcd271f8U,
  0xbb4f6700bdff6c16U, 0xbcd279503dcb830aU, 0xbdb5d2543de2c358U, 0xbd9f54443dc658faU,
  0xbc004760bd70b558U, 0x3bc6aec0bd210a10U, 0xbb769680bdd5fab6U, 0x3c430a803d9bbf0cU,
  0x3da5aa24bdf91944U, 0xbd12767c3d61371cU, 0xbcbd94c8bd1cc7d0U, 0xbc9374f03dfcae1eU,
  0xbcc78678bd81a284U, 0x3d46715c3cf116a0U, 0x3dd951a63df7466eU, 0xbdb14818bc3335e0U,
  0xbcae14a0bd8a8c7aU, 0xbca6b210bdf50cceU, 0xbc2924403d896438U, 0x3db25288bdc3bdbeU,
  0xbc9582c8bd829072U, 0x3db5fcb2bcecc7c8U, 0xbc76bf50bd843896U, 0xbde8c41abd314bbcU,
  0x3b68e000bd81e818U, 0xbdcbd9f43dd24a62U, 0x3df4cb683c03a420U, 0xbda51d9a3dbfed46U,
  0x3d0921403a1bf600U, 0x3dc750863dd7bb30U, 0xbce953b0bd59a7c4U, 0x3d9e1c4a3c6e9dc0U,
  0xbcb65f803b2f8480U, 0xbdd15792bb2b1b00U, 0xbdf490ae3d87bab4U, 0x3cb964483ca23578U,
  0x3c804bf0bcbd5768U, 0x3d6a6564bca604b8U, 0xbdebd7c03de7d618U, 0xbd2ad28cbd8bfa98U,
  0xbdec622e3dca5ac0U, 0x3b896ec03c8ec3b0U, 0xbdf918783ce4ae48U, 0x3db1b4dabdf726caU,
  0x3c1424503d71fb04U, 0xbcb0a2a03ddc0854U, 0xbdd347243d0f5300U, 0x3dcb287e3d8f08bcU,
  0xbdca315cbd782538U, 0xbcab5e383d90d596U, 0xbd8f3670bd1b4b30U, 0xbdfcc322bc712700U,
  0x3d647cf83de14142U, 0x3ca69ff83dc1ec06U, 0xbd1e4fbc3d5f1494U, 0xbdb778943d39f39cU,
  0x3dbc89e43d739d08U, 0x3cd40050bbb0c8e0U, 0x3c89a8d0bdca04d6U, 0xbd10c9a8bd7268d0U,
  0x3daad95e3b799340U, 0xbc5efe70bde1b408U, 0xbdf1e49ebdcd4ea6U, 0xbdaeabb23c7f1d60U,
  0xbd998dee3d45cb34U, 0xbd9981fa3da954e4U, 0x3d29c5783cabeff0U, 0x3ded5d3839a6da00U,
  0xbdf78bc8bdb0daf6U, 0x3ddceec83c820580U, 0xbce0dba83d8f6404U, 0xbde6926cbc5c0aa0U,
  0x3c32d1203d005ba0U, 0xbd5477d03bfe1260U, 0xbdc2ad243d9521d8U, 0xbcc00780bc382040U,
  0xbcea3bb83d4e57c8U, 0xbdc5d3aebdeb7b88U, 0x3dd514303d0ba4e0U, 0x3de56544bda72414U,
  0xbda5b92a3dc2db1cU, 0x3d35f198bda8c394U, 0xbcf007b8bdc5c838U, 0x3daf93c4bc54dc10U,
  0xbc2808b0bd69819cU, 0xbb33c800bd5e31e8U, 0xbd292330bdc66ed6U, 0xbdd276a8bdd62fc0U,
  0xbdb1b2d03dec5fc0U, 0xbdc582fe3d579268U, 0xbced4c103cefaad0U, 0xbc6e6ce0bd93400eU,
  0xbd6b73e43b7d7e40U, 0xbdf47e4ebd8cdb74U, 0xbdc091d8bdd8e63cU, 0xbd258768bc92cac8U,
  0xbda0b2183cbe4ff8U, 0x3cfc7b28bdf97b34U, 0x3dd1dbb63d3cf0dcU, 0x3d0f41e83d7b1328U,
  0x3c7474203dee66ccU, 0x3da535f23c446b50U, 0x3d930d943d897894U, 0x3de864acbde22dacU,
  0x3d99f176bd0eae90U, 0x3d79a3643cfb11b8U, 0x3df79852bd6150ecU, 0x3bd8bfe03db61230U,
  0x3d9083563dbc3ab2U, 0x3de7fbcc3dc22d26U, 0xbdec0c8a3d5b6c40U, 0x3d7de5703d34c4a0U,
  0x3ddabccebdd47370U, 0x3d8391b03dd04214U, 0x3d97b7e63dc15dd4U, 0xbc588bf03d722a08U,
  0x3dafab143af09400U, 0xbdc7bd883df45514U, 0x3dde0a4e3de8b9c0U, 0x3ded4b7e3db87f34U,
  0xbcd54c203c93cee0U, 0x3cc608403dbf2a34U, 0x3d7b885cbdec433eU, 0x3db8a1883dbe9236U,
  0xbdee2442bbcd56e0U, 0xbd6ba0783dbe87fcU, 0xbdeb7cc83b1496c0U, 0xbd21e1d43dfd5a6cU,
  0x3c93df08bdc39d56U, 0x3ce56b90bcff7930U, 0x3ddc7bbe3dbce3a0U, 0xbd948dd23d352b5cU,
  0x3da15154bc4c4930U, 0x3dc779a83c6caea0U, 0x3dfff9c8bd83872eU, 0xbcb31ae03dcaa71eU,
  0xbcfd8068bdd676c0U, 0x3dd6ee463d674ee0U, 0xba93b8003d040e24U, 0x3d7f8a08bbb0db00U,
  0xbdb2b6563d845638U, 0xbc645fb0bd47ce94U, 0xbd1dad383d752fa0U, 0xbdb141ecbc093c40U,
  0xbd66b020bd5a5f40U, 0x3dabdd763cb1f4e8U, 0xbd3b2d703df20bf0U, 0x3d2fdd6c3da4437aU,
  0x3d34f2dcbdc16caaU, 0x3dc5c6beba9bc400U, 0xbd06a8bcbd4ed3f0U, 0x3d1cf7e0bdc15fc0U,
  0xbdeb869cbd024284U, 0x3da97fba3dafe6d8U, 0xbc9c1bd0bd106480U, 0xbdd9b52a3c0667b0U,
  0x3d73ebdcbdf608beU, 0x3da9cd3e3c6961d0U, 0xbca975683df89f18U, 0xbdcf5e6e3b8e05a0U,
  0x3d77dca8bda9a0beU, 0x3bc2ee60bd179330U, 0x3de5285a3d501dc4U, 0x3c8754703d2fd888U,
  0xbda58d7c3dd34d76U, 0x3d82b33c3dc29b3aU, 0x3d3677443d9affd0U, 0xbdd190083d4348fcU,
  0x3dc378123d3bcd50U, 0x3bef7c00bdac9af2U, 0x3da18deebc824920U, 0x3c106df0bd561a2cU,
  0xbdcf7b30bcb79cb0U, 0x3bbffe003dd277b6U, 0x3c537da03be12b60U, 0x3d3ebde03cabc7a0U,
  0xb831d0003d56eb88U, 0xbdfea20ebde23a86U, 0x3da1a28cbbf44fe0U, 0xbcece0d83c166880U,
  0xbde86e78bd7f75e0U, 0x3db16410bd9abbaeU, 0x3a54a1003db7002eU, 0x3cb5d320bdb59130U,
  0xbd34fb10bcbd97f8U, 0x3cb19858bdd224daU, 0xbdf21ccebca60020U, 0xbc052f303d8795b8U,
  0x3d4f60f0bde99c16U, 0x3dacbff03dcb68b8U, 0xbd9574d8bd87a260U, 0x3ad79b00bdb2cbdeU,
  0x3d4223f83d71d2e8U, 0xbd86bca8bd235e20U, 0x3d9cfee6bcb19db0U, 0x3de23e00bd5d3954U,
  0x3d15d1ac3d477988U, 0x3d9cd5ec3d936902U, 0xbdd86ef43da0b070U, 0xbdea69fa3ce55c60U,
  0xbb2530003db62a50U, 0x3c60cbb03dee088eU, 0xbdd0ce103db8250cU, 0x3daaa5a2bd1484c8U,
  0xbda217aa3df30312U, 0xbcc8b5783c528f80U, 0xbd94c2a2bdbb80c8U, 0x3da1e2543d5585b0U,
  0xbd325b103d858d50U, 0xbdc5c8fabce972c8U, 0xbced9178bdb71b52U, 0x3ddbf3503c164ec0U,
  0xbdb33afabdcf8b5cU, 0x3d604830bdb2bf64U, 0x3dbd24363db5ea76U, 0xbdbd27763b583800U,
  0x3df39206bd50d590U, 0xbd2eb0ecbc998050U, 0xbd8894ba3b16ad80U, 0xbd8dac403de9958cU,
  0xbdda26f63c652070U, 0x3deee04cbdb00dc2U, 0x3dadcbaa3d09079cU, 0x3d0cba143dea5212U,
  0x3de6501abdf21f4cU, 0xbceac6103ca94aa0U, 0x3dcf0118bdda10d8U, 0x3dd9e662bcbb3de0U,
  0xbdfea6d23c9b7498U, 0xbd88be60bc7262b0U, 0xbc945948bc4bce40U, 0x3cfb2e883c215730U,
  0xbda40bf8bc1a56a0U, 0xbc3edd50bd47daccU, 0x3d0b6c68bde61abaU, 0x3b9b32a0bd95e8daU,
  0xbde424543da86098U, 0x3c5be6d0bdfa06deU, 0x3dd577febd7fce5cU, 0x3da6ed1ebdb75446U,
  0xbdf4c2ba3d09add0U, 0xbd928fe6bc15dc60U, 0xbd6dc654bdd4b8b6U, 0x3d54c8103c571660U,
  0x3d3686d4bc1e6880U, 0x3db888623cd26058U, 0x3c8fdcc0bd3560a8U, 0x3d8a31543db41a04U,
  0xbdaff188bd7f3700U, 0x3def85583dbef186U, 0xbd8b68443c33b470U, 0x3c6b6e70bdb89584U,
  0x3d1b1704bd1dc19cU, 0x3d9222eabdc671aeU, 0x3d8bc5a6bd27f14cU, 0x3d21b358bdc37392U,
  0xbd820b28bd831d8eU, 0xbd883f02bd280e10U, 0x3c96c638bdf214dcU, 0xbce823c03c54b200U,
  0xbd245d303d5a4644U, 0xbd2ef2c0bbbd2b00U, 0x3d97580a3d0b4d10U, 0x3caeb3f8bdcc3d62U,
  0x3c2ce2103d8edd52U, 0x3ae4dd00bc4d9d40U, 0x3d5def18bd510eecU, 0x3dff3906bd829fb8U,
  0xba8faa00bdf08892U, 0xbcc2b6a03d1185a0U, 0xbdafcb9abd58aec4U, 0xbdffd1a0bdd5046eU,
  0x3c3ff9403d7ef34cU, 0x3d8cfc64bd486830U, 0x3c67ded0bd36b3b4U, 0x3d98046ebdfae3e8U,
  0xbd04529cbdf80cf4U, 0x3d5d9400bdcdede0U, 0xbd8ea00a3dc71a26U, 0x3de77e3c3cdfbe90U,
  0xbca201b0bdb4a82aU, 0x3d384d84bdd8347cU, 0xbda18f96bb3fd3c0U, 0x3dbb4264bdbf020aU,
  0xbd8b14a4bd7c2a0cU, 0xbc7707c0bc6a57f0U, 0xbd6421fc3d9f920aU, 0x3db18c263d7af39cU,
  0x3bbbc8a0bdd51a5aU, 0xbdba4e26bd536268U, 0xbdef05acbdfdaee2U, 0xbdb42716bd6d3e18U,
  0xbde8122abd5d5ef8U, 0xbd9b88b23c96a130U, 0xbd0de7bcbda06f62U, 0xbd6169303d949e60U,
  0x3c2f5770bdc5e74eU, 0xbd409f2cbcbb1cb8U, 0xbd963c00bdc9922aU, 0x3d532510bdab2d5cU,
  0x3d352668bdf45cc8U, 0xbd454e683d91f74cU, 0x3cbe33183ded84c6U, 0x3bbec7003bd55320U,
  0x3d0fb504bba9d400U, 0x3b912200bd9e7deaU, 0x3d5754243dfd9da2U, 0x3da45be83d84e804U,
  0x3d276cf03d95c68aU, 0xbdff72fc3d25a8e0U, 0xbd5cc3f0bd9d99aeU, 0xbd750c44bdba7f32U,
  0x3da23a023da86d86U, 0x3d20c254bd2deb98U, 0x3cbf64e83b381c00U, 0xbdb7c8e83dcbd742U,
  0xbd0dcd383da9e554U, 0x3dcd136e3df6d6a2U, 0xbd1219883d0de574U, 0x3dd66ed0bc53e6f0U,
  0xbd3ba1fc3d3e1f68U, 0xbdaa2902bdebfdb2U, 0xbd8ced6e3db0ed80U, 0x3d40050cbdd00d06U,
  0xbde42946bd118154U, 0xbd5e8cd4bc985a20U, 0x3d979f143dbb5a80U, 0x3d8da9f4bd8df20aU,
  0x3d688b2c3c313bc0U, 0x3d2a26483d618860U, 0xbdf55a14bc9ab608U, 0xbdcad7c6bd3b76b0U,
  0x3a6d74003d56eb5cU, 0x3df2c6dcbd95d318U, 0x3cc5e8d8bc937f78U, 0xbd4e0ee03d8960e4U,
  0x3dc78192bde5a81aU, 0x3dda35323afc2200U, 0x3d9b5a503df7c806U, 0xbdcf58d83db442d8U,
  0xbbaf5500bd91e626U, 0x3d628b5cbd64b6c4U, 0x3da14804bd1759fcU, 0x3de3da98bdf20446U,
  0xbcf615d8bdf3683eU, 0x3dbfa2923d91cd7aU, 0xbc42e920bd8516d8U, 0x3d156210bd928066U,
  0xbc4ad4e0bdb22a14U, 0x3c9c8128bdd6756cU, 0x3dd38eec3dbafbb4U, 0xbdd67760bddac732U,
  0x3d2af8dcbdcc8c02U, 0xbde58bf03d873792U, 0x3d7413303a58c900U, 0xbde14b063c4e5ee0U,
  0xbd2eeba0bc6f96b0U, 0x3d3604e83d994c82U, 0x3a30da00bd25e008U, 0xbdb0ad9abd3fdda0U,
  0x3cac8820bdf33504U, 0x3d6d80983d1e0aa8U, 0xbb88e3603df195c4U, 0xbcf09c303d0fae9cU,
  0xbdab1af0ba751200U, 0x3d3acc243d35beacU, 0x3dfa943c3d877036U, 0xbdcddd703d6efd7cU,
  0x3dd47732bdf7e230U, 0xbd7dca683dc722b6U, 0xbd3b2c343d1a1670U, 0x3d971a7c3d665fd8U,
  0xbd28665c3d4e0dacU, 0x3df0002e3dda5200U, 0xbd857c6c3dd6cb86U, 0x3d8417d8bcca12e8U,
  0xbdb5b0ecbd0d33d4U, 0xbc671f703dae0010U, 0x3d374dd0bc94b9a8U, 0xbbd72a20bc96c240U,
  0x3da3d86abddfc4feU, 0xbd90f42abd1e9e50U, 0x3dda0a7e3d7a54f0U, 0x3b8fd2a03de88b4aU,
  0xbdceee9abd66881cU, 0xbdcb8908bc22a950U, 0xbd1f04603d2cc284U, 0xbd5bde34bcc24b10U,
  0xbd63e4d4bd9d40ecU, 0x3db987f2bde80c9eU, 0xbdc4b4743d83b35eU, 0xbd38474cbdbd812cU,
  0x3d0d3088bdd70e80U, 0xbcdb80e8bd9846feU, 0x3d8e901e3d8ae792U, 0x3dc021363c957728U,
  0x3d52bc74bdf0506aU, 0x3cab7040bdb89c8aU, 0x3dffb8723c75fda0U, 0xbd97b588bc1e3680U,
  0x3b597cc03d968354U, 0x3dd2d7b6bdfa9aa2U, 0xbce99f083de4fa44U, 0xbd7b8618bd3bf668U,
  0x3ddbb57abbf25d80U, 0x3c91de383d250968U, 0xbdd2e5e0bc5af640U, 0xbdab3a7a3dbe638aU,
  0xbdf13bce3cdff9b0U, 0x3da49d9abd414588U, 0xbd89c1f4bc6bbd00U, 0xbd8613a2bd49e2acU,
  0xbdc2b0863dad4242U, 0x3c9ff320bc685460U, 0xbbf9a920bbb4f4c0U, 0xbde52f9ebbd7e920U,
  0x3de53f0a3df31878U, 0xbd18b6d4bdf06abaU, 0x3b6026403d3af200U, 0x3dc146823ceae180U,
  0xbd1dc9bcbc828b68U, 0xbd820634bc5f4280U, 0xbd9f1c543d446398U, 0xbd917d323d7994f4U,
  0xbd3c5774bdadc11cU, 0x3de08f463d08b50cU, 0x3c3851b03d6d19c8U, 0x3dcf08083d6f4dd8U,
  0xbdd071f23c89d118U, 0x3d5926d4bcb096a8U, 0xbda8008cbdb7e67cU, 0xbd39b130bd3f7b38U,
  0x3d46d778bd15a250U, 0xbd2ce090bd269540U, 0xbd1b57503cad0e28U, 0x3b83e2a03a7d8c00U,
  0x3d84d958bd85f8e2U, 0x3d8289b23dd2288aU, 0x3b8d2560bd7ff8e0U, 0x3d6453e4bde6a216U,
  0x3d96548c3ce073a0U, 0xbdea96f4bdf4bd80U, 0x3d830670bd46d7f0U, 0x3da9ae803de71cc0U,
  0xbdbc8fb63c25eba0U, 0x3dec3c7abbbeada0U, 0xbdf5deecbdf2d75eU, 0x3dedf18a3d7df824U,
  0xbcd7e278bcb8a470U, 0xbcfd89783c78fb40U, 0xbca37ed83d20b154U, 0x3c8ff5783c8cef80U,
  0xbce9bb88bd2f2bdcU, 0xbddea8f2bdfdc492U, 0xbd63bb04bd6103ecU, 0xbdb6d462bd130448U,
  0xbc8e6d703df7dc38U, 0x3cb009783dfb57c2U, 0x3d66e9143deba430U, 0xbd83016a3b6d6bc0U,
  0xbb3526c0bd949bd0U, 0x3db0f5963d0205fcU, 0x3db075543d02d830U, 0x3dea227abd7193c0U,
  0x3d91a7283db55284U, 0xbcd9ef70bb99fd40U, 0xbda3c3523b829360U, 0x3caba5a83d9496ceU,
  0xbd99ff12bbe67500U, 0x3d86a880bdd12824U, 0xbdb4c0c6bd5a6194U, 0x3ccb06c0bd1dd500U,
  0x3d5d47c03db502ceU, 0x3dfdae4ebd959252U, 0x3de0b1363d8a06a2U, 0x3c9d5c88bd9d321eU,
  0xbd40ebe4bd4a1bd0U, 0xbc5a1570bcff5898U, 0xbdd9d6a63d0bf2dcU, 0xbd788ef0bdd6f89cU,
  0xbdc78560bda7860aU, 0x3dbe57283da1e6b4U, 0xbdcb92823def242cU, 0xbd9835f0bd8602a4U,
  0x3d91bde63d2f97ccU, 0x3cdf20a83caa3608U, 0xbdbc438abdaa173aU, 0xbc9681a03dfce96cU,
  0xbd99adc03c7b0180U, 0xbd8fea18bd30e90cU, 0xbd714fa03a8f9d00U, 0xbd53fbc8bcad9240U,
  0xbc2fcb403da2f050U, 0x3defad503dbbb0a0U, 0x3da1b73cbdec45baU, 0xbd640d44bd33b994U,
  0x3d6133743dd7de46U, 0xbd9ed212bd979d24U, 0xbdee156abdc485c4U, 0x3dc84b803c787d10U,
  0x3d474e403d770f64U, 0x3dbf052ebd82d17eU, 0x3cdb7f803de866c4U, 0x3d7cf74cbbd280a0U,
  0xbdbc2b08bd8782e4U, 0xbdc2eaacbdaf96eaU, 0x3cce94b83df3ecbaU, 0x3dc9124c3d73d808U,
  0xbd9f0f983dffa440U, 0x3de945a2bdac0fbcU, 0x3cbdb3183d8a4fc0U, 0xbdd0799a3d3f123cU,
  0x3dac29c83d79ee18U, 0xbde952bcba10be00U, 0xbda843aebdab20e4U, 0xbd2ed49c3d7db954U,
  0x3d83f31e3dc48e0cU, 0x3d973736bbb27200U, 0xbd7158803cf9f180U, 0x3d35f79cbdba1aa6U,
  0x3cb6b008bdd10138U, 0x3d82a94c3d6097b0U, 0xbd36f7083cce9998U, 0x3dcbda6cbbabb640U,
  0xbdd0e9803de0c0e2U, 0xbde1db90bd95e4d6U, 0xbdf1bae4bc2a8c80U, 0xbdc23d38bda0be38U,
  0x3de73c54bdbcfd82U, 0x3daf6e38bdc2ca98U, 0xbdb8f552bccfe450U, 0x3d851b52bde7d42eU,
  0x3d93b81cbdf116deU, 0x3db47ce0bc7463f0U, 0x3c9127983d6fc864U, 0xbd0f92403d9c7918U,
  0xba4904003ddf01f2U, 0x3c18e3b0bd0318c8U, 0x3dc984a8bdb7f0f8U, 0x3c7ce440bcf29da8U,
  0xbda8c5d43dd28dc2U, 0xbdc586aebdea388eU, 0xbdb1cdce3d1ede10U, 0xbd557cac3d450618U,
  0x3d373f2cbd064180U, 0x3dbd3d7abdc2d508U, 0xbdd7be74bd89c6e8U, 0x3db39cd4bda82a4eU,
  0xbda0fa22bcd75300U, 0xbd893c1c3d794654U, 0x3da8c640bdacff46U, 0x3b8982e03d86ca9aU,
  0xbc372e803db9e2d8U, 0x3c4e02003b0065c0U, 0x3dbb8d3abd858834U, 0x3dd8453c3dcb92c0U,
  0xbd94f5f23dab1436U, 0x3ddd18963de83bc4U, 0x3c5ed5d03dcc63d4U, 0x3d759078bd0a95b4U,
  0xbc2177f0bc40c1b0U, 0x3ccfdca83d04f6e0U, 0xbd5a0a88bd705f9cU, 0xbd34de6cbd976ff4U,
  0x3d92cb30bda10feeU, 0xbc6e2440bda71d7aU, 0xbdbf99f23dbbbc30U, 0xbde455283dec0492U,
  0xbd19f99839ac7e00U, 0x3d452338bdc1d14eU, 0x3d865fdebc0b8bb0U, 0xbdc363563b904540U,
  0x3dac25d03d1cb86cU, 0x3dbb18a83d1de0bcU, 0xbdf351dcbd0112a8U, 0xbc515a30bb96f720U,
  0xbd472154bd3d2c80U, 0x3b1d07c03df7c0e6U, 0x3b6aa500bd4cf25cU, 0xbd6b969c3d277c58U,
  0xbd94fa1ebb35d180U, 0x3d86bd70bdac5280U, 0xbdcdaabcbd9d0faaU, 0xbdec28d63dc1cb72U,
  0xbdb53728bda101b8U, 0xbd8aeec83cad8498U, 0xbdfe3ad6bdc96208U, 0xbdcb9068bdf3c8dcU,
  0x3d9534483b7c8a40U, 0x3da2262ebbd9b060U, 0x3ba1f0e0bbd324e0U, 0xb99210003da71420U,
  0x3d97841e3d6a5dbcU, 0xbd6e9284bd04a0e8U, 0x3c68db403df9356eU, 0x3dc6e2183d6a433cU,
  0x3d3b84343b287800U, 0xbdb2c63c3d164b04U, 0x3def3468bc5fb040U, 0x3dfa4ababc6f5cc0U,
  0x3de6040c3deb536aU, 0xbccda9d83dda95bcU, 0x3c181de03a2c9100U, 0x3cb417f0bdb4c8e6U,
  0xbcb501383de39152U, 0x3d8b5b5e39dd5200U, 0x3dfefa20bd9f8144U, 0xbcd0b810bd0227c0U,
  0xbdad5c883d6ac438U, 0x3da5f0a4bdcb88eaU, 0xbdbed3e4bded7852U, 0xbdfb7bd23df5d722U,
  0xbc4a45303dff0a4eU, 0x3d1170e4bc1fda20U, 0xbd18cb703cb77b98U, 0xbdd777b6bda248a4U,
  0xbd9f1aac3dfa6928U, 0x3d36ead03dc932e8U, 0x3cb817e83d84586cU, 0x3dbcceccbd40a608U,
  0x3cdfa7583cbe9fb0U, 0x3dd3c33c3c9b9098U, 0x3df89212bca4fcb8U, 0xbc231c203d55dedcU,
  0x3df962b83d8b9c88U, 0x3dbde67ebded53fcU, 0x3c1bb1303cddb258U, 0xbdb528fcbdd009e4U,
  0xbdd31a3ebd869404U, 0xbdbdcdb6bd6eba18U, 0x3dff597c3db3e108U, 0xbce56310bd008b08U,
  0x3bddcac03dc7b096U, 0xbdc325c6bdd16e1aU, 0x3c905e98bd252494U, 0x3ca437383daf49faU,
  0xbdb45aec3d71f28cU, 0xbd1956003def543cU, 0x3c8820783d98a754U, 0x3d8f9fb6bdb80442U,
  0x3d1b81f4bc894688U, 0xbdbdbdf83d80ac4cU, 0x3d50f3783d587800U, 0x3da1830c3d3283bcU,
  0x3c0ea540bd727cd0U, 0xbd67d24c3d578fd4U, 0x3db181543d6b5130U, 0xbdf921223b0432c0U,
  0x3cc356103d9f40f8U, 0x3d0a11f4bb300000U, 0x3db7ad56bd774aa4U, 0x3d09ccf0bca3fab0U,
  0xbddb771ebdfedd64U, 0x3d5abad03daf495cU, 0x3bd87680bdf91ea4U, 0xbdbd12883d9c3cd8U,
  0xbde3d6e4bdeaf388U, 0xbdad88cebd606180U, 0xbdc0b7883da0ec9aU, 0xbd147a783c972288U,
  0x3d857ac83d994cceU, 0x3cfbc5083d293b58U, 0xbce8a0303d8fac74U, 0x3c99d378bdc34adeU,
  0x3cb408203d0ee1e8U, 0xbdddd4bc3dfe5fcaU, 0x3daa7148bd21f4e0U, 0x38f020003d87580aU,
  0xbd772f1cba951680U, 0x3c9b35b03d5aa000U, 0x3dbe185cbdb8a502U, 0xbdcfc0ac3c88f348U,
  0xbd650230bd347834U, 0xbdb5f8923dbe5e16U, 0xbdac48463d711d38U, 0x3d8fe0523db60be8U,
  0x3d919eb23d783388U, 0x3b98eec0bd018ca4U, 0xbd36524cbd80fcd6U, 0x3dc47f143c9b4d50U,
  0x3dc4cf683d5cd1ccU, 0xbc9f3710bd547be8U, 0xbd2925643c93c7d8U, 0xbd7e08783def13f2U,
  0xbda3e606bd739720U, 0x3d9640ea3dbbe970U, 0x3ddfa9523d87999eU, 0x3dad14343ca2b708U,
  0xbdcf7ef0bd12e74cU, 0x3dcb98583d8a16b4U, 0xbdd5948ebd485af0U, 0x3df0009ebda1d9b6U,
  0x3dd3b5f63df2b614U, 0x3d931eee3d2867e0U, 0xbd3e32143ddfd218U, 0x3ced38e83c1b0990U,
  0x3cb83ef8bde410d8U, 0x3d74f0b0bd7c9298U, 0x3df1f404bcb394b8U, 0x3da5eb5a3bc46c60U,
  0x3dcb2be6bc775530U, 0x3d271414bdca377cU, 0x3d07fb68bca2ead8U, 0xbd561f243dcfbe8cU,
  0x3d9da9b03d2dc400U, 0x3de8b800bdccb2c8U, 0x3d60ccd8ba6e0300U, 0xbdca507cbc9e5de0U,
  0xbc86b0e8bc7418d0U, 0x3d869f58bde5d130U, 0xbde05dae3c831b08U, 0x3d6ffb083d2beae4U,
  0x3cf48d88bd00ef88U, 0xbcf25908bdfcaf1cU, 0xbda77644bde61fdaU, 0xbd0dccf43d7bfa98U,
  0x3dca474a3d0fe3f8U, 0xbd63974c3c82fc38U, 0x3d07b5e0bd7cabc0U, 0x3db857883deae89cU,
  0xbd0e85843dc1f976U, 0x3b9a17c0bda1724eU, 0x3d84992e3bdb3260U, 0xbd1df7003d9d838aU,
  0x3d2c81583dd84e12U, 0x3dfcec183d831c8eU, 0x3de17896bd220840U, 0xbdc486ce3dc615b0U,
  0xbbaf33a0bda286f6U, 0x3db0c2d038d53800U, 0x3d85f6bebd6189d4U, 0x3dcbf2b63dc35536U,
  0x3dc0cebcbd2194e4U, 0xbdae6e963dd62b7eU, 0x3d5ef0683dcb2432U, 0x3d835fbe3c8342a8U,
  0x3b82e5c0bdd245beU, 0xbdde91943dde9c3cU, 0xbcbb15503d23ad70U, 0x3c0504c0bdbb80c4U,
  0xbdae92a03d804240U, 0x3df94616bd49bb8cU, 0xbdfeb95ebde44f42U, 0xbdf1ffb23d79fc6cU,
  0xbcfdacb0bc9ad6b0U, 0xbdfdde3abb5f7b00U, 0xbd2f0b2c3dd835a2U, 0x3ddf0578baaea500U,
  0x3dec6e94bc667740U, 0x3d772a983da7c6d6U, 0x3ce4c9f83d7ea824U, 0x3d9380d6bc207770U,
  0xbdadab06bc447b30U, 0xbdf687c43da3d2f8U, 0xbdd268863dac444aU, 0xbba49d403de7c906U,
  0x3d1c1b883cfd9410U, 0x3de33842bd87bcd8U, 0xbdd675323d9b8252U, 0x3d5383ec3c320e20U,
  0x3d4ae3b03db4b7fcU, 0x3da2825abdfd036aU, 0x3d0ab2f43dfe3e1aU, 0x3daa25b83c06ff20U,
  0x3d716f90bdbf4b12U, 0x3b82fca03dc4605aU, 0x3dc340acbbaefc80U, 0xbdcd8020bd498fdcU,
  0xbd20d8ec3c6589b0U, 0xbca7a850bdf41c0eU, 0xbd3554543d02edc0U, 0x3db41dd83d4a8fd0U,
  0xbdafd8463ddea4baU, 0xbdafa7763d1902a8U, 0x3c9d87c03d500278U, 0x3bb56e003ddf1b7aU,
  0x3bca5b40bb11c480U, 0xbdfb5a743d82d17cU, 0xbdc184923d2c37b0U, 0x3c8579d03deba1e6U,
  0xbdfb6680bd85d9ecU, 0xbcfdf9803dc483daU, 0xbb0cf1c03da4d6bcU, 0xbd5d784cbdea43e2U,
  0x3db4277ebdc3934eU, 0xbdc42b8ebd3b16b0U, 0x3df5f7f8bd49cf6cU, 0xbcd03148bcb34710U,
  0xbc1923b03d65ddccU, 0xbda076c0bcce2e70U, 0xbdba8a5abd13265cU, 0xbdd02532bdc954caU,
  0xbdff8ccebda65420U, 0xbd8658f8bd288828U, 0xbc14ce70bc9ab2f0U, 0xbc38c390bd3a4398U,
  0x3d301d743d79bfd0U, 0xbd469344bd381b84U, 0xbdf54b3a3dfe0832U, 0x3dcfa7a43d5536a0U,
  0x38e9c800bd6bedacU, 0xbd00867cbdc9bcc6U, 0x3c5f8900bd874668U, 0x3c0449b03dfa0588U,
  0xbdf1ec16bdfcf958U, 0x3daf73223ab5e900U, 0xbd356ffc3d83a5c8U, 0xbdb8a8ccbdc4b546U,
  0x3da8f1ac3d842d0cU, 0x3d22bae0bb8c98e0U, 0xbd1adfecbdd2d35cU, 0xbcd07240bd44816cU,
  0xbd20c99cbdeeefaeU, 0xbc7fa550bda573fcU, 0xbd9a995abcfa7f80U, 0x3d90c2883d923506U,
  0x3db7e0923d0fb824U, 0x3d092b68bd4f7a00U, 0x3dad18b2bd8cd798U, 0x3d8465e8bb97d680U,
  0xbd2a6d24bdc84ceaU, 0xbde3e3f8bcddc7f0U, 0x3da32f1abcac55c0U, 0x3d8a8000bdcb4cb0U,
  0xbdab4692bc95ad80U, 0x3dc377663af62a80U, 0x3d37a034bcb63b18U, 0xbdde0f2a3d8a04b2U,
  0x3dfe1c90bdd80d64U, 0x3d6ce04c3d3a0d08U, 0xbd903a563db140e4U, 0xbc8b3ef0bd8a02d8U,
  0x3d9d1090bd103bb0U, 0x3d65a39c3dc70b80U, 0x3d70dc54bd9a31d0U, 0x3db0dd963d3404ccU,
  0x3d9b3240bc52ca70U, 0x3d94db763ab63580U, 0xbdfa192e3da8b98eU, 0x3c2b53c0bd96e2b4U,
  0x3cd2dbf83ddcc04eU, 0x3d8995903dd34932U, 0xbd10b04cbdd7af92U, 0xbc025ba0bde5f1deU,
  0xbcda08603d0d5664U, 0xbc9530703de35bbaU, 0xbca402003da35ce0U, 0x3dcb1de23dcb2caaU,
  0xbda85552bc02ace0U, 0xbda40caebdedbe7eU, 0x3c8f2540bbe2ea40U, 0xbdabbf1e3cde4070U,
  0xbc48d8903d9bea30U, 0xbdca7100bcbfacb0U, 0x3dfe10883cc4d5e8U, 0x3dab18e4bd85769eU,
  0x3dc1aef0bc44f2c0U, 0xbd9d3b48bd8ff466U, 0x3d222a843cfef5e8U, 0x3d85c18c3dc1ef2aU,
  0xbd172f54bd4b16e0U, 0x3d2001c4bbaeae40U, 0x3c851060bd92018eU, 0x3d00f3283d2a7fe0U,
  0x3dc7efeebdc0fb86U, 0xbceb8760bc924ee8U, 0xbd95136e3bf7c460U, 0x3dbfb7e03d980a6eU,
  0xbccac8b8bc9c72d0U, 0x3cfb29103d2ed868U, 0x3d6f4a5c3d3b3c7cU, 0xbcafea20bdad9522U,
  0x3dbf547e3d7a0828U, 0xbcb17f50bd8c9c70U, 0xbd3b6c983d0ba89cU, 0xbd8e4606bd0eb628U,
  0x3d70386cbd98dbf6U, 0xbd8b74e23d802f40U, 0xbde85ff8bceb2718U, 0xbd17e538bcf329a8U,
  0x3d75b5683da8a7baU, 0xbda80644bdb89e62U, 0xbdcb02dc3d99d0caU, 0xbd91fae8bdc01e6aU,
  0xbd9f3dd2bdd20698U, 0x3df152b03d995ab0U, 0x3d367d90bc70f750U, 0x3ce57a383d1360bcU,
  0x3ce64a70bdeef6fcU, 0x3d363c1c3d46f108U, 0x3d551350ba0e6900U, 0xbdb9de563d2baaa0U,
  0xbdf6a13abd95cc2cU, 0x3ddd671abd3b6dc8U, 0x3ced28d83c9055f8U, 0x3bd92f803c3ef010U,
  0xbdfae502bd71c54cU, 0x3dfbaf38bd8cabd0U, 0xbddc0d78bd62ad38U, 0xbd888f163d9a1402U,
  0x3d2a5a583dae06eaU, 0xbd4c2eccbc504960U, 0x3cb5ece03deb80acU, 0xbdc8bfe0bd64c200U,
  0xbdbb72c6b8c56800U, 0x3de17dc63dcd3338U, 0xbdfe7b1a3d376e40U, 0xbd9001983dc0a352U,
  0x3d2eb7c03dfeb202U, 0xbde57f303ca93450U, 0x3dfd8152bd297864U, 0x3d3eb4243d9182beU,
  0x3dbe80d23cab2598U, 0xbd89b35cbd26b81cU, 0x3c768730bd47cc0cU, 0xbcf21578ba76f300U,
  0xbdce06a0bd051cd0U, 0xbcc0c2e03d5f756cU, 0xbcc220c03cf28368U, 0xbdd9d3aebde7e118U,
  0xbda7c4c4bdbd9ef4U, 0xbccff3a03cf10d78U, 0x3ddf1f963b258a40U, 0xbcb96dc03df6ef5cU,
  0x3b01d780bbdf8c80U, 0xbddd0ce63d0ff584U, 0xbdf621da3d2baed8U, 0xbb7b0f803dc475feU,
  0x3d6036e43ddc2f7cU, 0x3d188c083df8c25eU, 0xbd5474a43ca2b0b0U, 0x3d6fa7503ddd9250U,
  0xbd410f183cfc6120U, 0x3d8bc158bde49c16U, 0x3d8a465c3da70188U, 0x3cbf01683df6aec2U,
  0xbdadcb663dafe37aU, 0x3d511fe43c5f05f0U, 0xbcfc9cc03dee11a2U, 0xbd5a4f4c3cb7b410U,
  0xbd9abed03c5d8570U, 0x3ca5fbf8bd962f46U, 0x3d243cdc3d6250e4U, 0xbcab81903dc7b9ccU,
  0xbc9ea3303cdc7028U, 0x3cddf8183d56f664U, 0x3cc164d03dfe4eecU, 0xbd36d9443c6e3e20U,
  0x3d4c0cb03dfdbb88U, 0xbdf5243e3c9e1690U, 0x3dc46622bc700ed0U, 0x3dcccc623dc32ac8U,
  0x3d113a00bd240428U, 0x3c1a86103d04c8c0U, 0x3d658d183cb00e28U, 0xbde539d43dea2468U,
  0xbce140d03da18628U, 0x3cdec9783dc355baU, 0xbc0d12003c836270U, 0xbd1453903d48ea6cU,
  0xbdc3daf83d787c9cU, 0x3c7c56f03cb2ca70U, 0x3cd657e8bd1aee6cU, 0xbdf76a023d9ccde4U,
  0x3d0ebd10bda44906U, 0xbdfe8fd63db58550U, 0xbc216b50bdea0b2cU, 0x3dbe7174bd8e888aU,
  0xbd8a58703dd6f34eU, 0x3b053740bdc1d3aeU, 0x3dd841043b986ea0U, 0xbd24e9ecbd8234a8U,
  0x3d552edc3df65dacU, 0xbd65d9443d93f69cU, 0x3be22a60bdf6bcf8U, 0x3cf5a098bd98579cU,
  0xbdad7696bd104348U, 0xbdedef94bd30f6ecU, 0x3c35f0003d3c9fb0U, 0xbdb7cb783b88bec0U,
  0x3d4720dc3d5914f4U, 0xbdc15ff03dafb264U, 0xbcd0f9d0bd9a400eU, 0xbd7ada083c7e3990U,
  0xbd591bdcbdacb9feU, 0xbd6af1ccbd845614U, 0x3c3b4ec0bdd35ff4U, 0xbd2d79103d063b04U,
  0xbca308283d914080U, 0xbd5f82283cec68f8U, 0xbd4ba54cbdb99f80U, 0xbd46909c3c50bbb0U,
  0xbc8c07a8bb67ca80U, 0xbc26dcd0bd62f824U, 0xbd0caa143de37820U, 0xbd5c031c3de42330U,
  0x3bb53c60bd7e6b84U, 0xbdf044743d108888U, 0x3cbfcf603cf0cce0U, 0xbdf604fcbd3d026cU,
  0xbdc37a583df1e7ecU, 0xbd25c5a4bbd4ad80U, 0x3dba335cbd96fb1aU, 0xbded5d0ebd3e8adcU,
  0xbdec56aebd30a54cU, 0xbd8b1b0a3dfd8640U, 0x3db37aa23dafa000U, 0xbd59c278bd396328U,
  0x3dc7bbfcbdf05b2eU, 0xbdd23830bd8f1c1cU, 0xbd9acc4a3ddc4226U, 0x3dbdc40abdb58a62U,
  0xbbd65e403ce53258U, 0xbdb4b3543d59c584U, 0x3dac5cf83d7038a8U, 0x3d9414d8bb39b980U,
  0xbdc7804abddc97f0U, 0x3cbd45883df243feU, 0x3bbf6d603ddf05d6U, 0x3dad5cf23d99775cU,
  0xbdc9122a3cf51808U, 0xbde3f9023da92dd6U, 0x3c1b78d03ddc0d28U, 0x3d9f56583d9cde0eU,
  0xbde887c2bc89f9d0U, 0x3cea09c8bd7982a0U, 0x3c48d6203db7e2d6U, 0x3db17fe6bdef5318U,
  0xbd1545103d914958U, 0x3ded1a8c3db11410U, 0x3d4d368c3de8c106U, 0x3d274820bbbd39a0U,
  0xbcbcfb98bd31687cU, 0xbdb77f04bdf7bfbaU, 0xbdf3f31cbd83422eU, 0xbd8a86843d154ddcU,
  0x3ddd52a0bd81bdfeU, 0x3db7bb8c3dd35362U, 0xbc077730bd957630U, 0x3de6015c3dbabe70U,
  0xbd5216283ccb6918U, 0xbd93ffa83da56b9eU, 0xbd130c88bda44dfcU, 0x3dd7ce003ce5d3e8U,
  0x3d1665c4bd11a280U, 0xbcfad9f0bcc66e58U, 0x3de3c024bce485b0U, 0x3dc3c3743da8e3beU,
  0xbdbbf2a8bc438b30U, 0x3db2e7d83db8b49eU, 0xbd19f97c3ccd7470U, 0x3d7b5b88bde2552eU,
  0x3de95f68bd80c7eaU, 0xbdb8674a3d7f250cU, 0xbca6d338bd92581eU, 0xbdee4d263dbcb83cU,
  0x3d41cc78bcf8ae58U, 0x3d1e36fc3b1cd940U, 0xbd8aada4bd183b48U, 0x3dc306f2bd8a61feU,
  0x3cfff200bd93e4ecU, 0xbc5eb8c03d3ae5d0U, 0x3d4679e43db22674U, 0xbd62cba8bd49d684U,
  0xbda23d0cbd97ebd4U, 0xbdfc08eabd96ae7aU, 0x3d20d5903c6e8df0U, 0x3d9a3d103d534228U,
  0x3be074a03d1584b4U, 0xbcc2ea18bd5d47dcU, 0xbdb7eee8bdcceceeU, 0xbd0b8c9cbdc9e526U,
  0x3dcad6843bcc5780U, 0x3c7e2120bde79b76U, 0x3dc321a43df0e3eeU, 0x3bc871a03dc150d2U,
  0x3d297804bdd9a99aU, 0xbd7c64e4bcbb8688U, 0xbdcba216bda45c4eU, 0x3decb2c03d8272fcU,
  0xbd8797f43dd05708U, 0xbdd1bb583dd3d2c2U, 0x3d8bccb43df6cd5cU, 0xbd943f7a3c99aea0U,
  0xbdc4c776bdfe5acaU, 0x3d8a49003c41b5d0U, 0xbc85d8e03db36d44U, 0xbd87cd9cbd8b0e50U,
  0x3d3f146c3cbecd18U, 0xbd63b6583de9ec14U, 0xbd6150c83c878218U, 0x3c5624f03d468178U,
  0xbd76674c3d57ae98U, 0xbdce6eecbdac526cU, 0x3dbcb87ebd3056acU, 0x3ddae7903dd3ce06U,
  0xbdea97de3cc429e8U, 0xbd41f4583d3c954cU, 0x3c5af510bcf720a8U, 0xbd1f3cb83cc978a0U,
  0x3d851e583ab4c580U, 0x3c2068f0bdf22f98U, 0x3d62c544bda978e2U, 0xbb4acf40bdec5d12U,
  0x3d9f69b4bb558f00U, 0x3dd789cc3d69b404U, 0x3d5353b0bc185d10U, 0x3d8e1d72bd93a932U,
  0xbdee987a3dd0dbc8U, 0xbd65604cbd74d9ecU, 0xbcffeb40bbe30380U, 0xbdbb14103d38ea64U,
  0xbd8dc2dc3ddc8daeU, 0xbda6f87cbc8ce9e8U, 0xbd6791c43c891938U, 0x3d0c26703ce674c8U,
  0xbca4c948bd67b594U, 0x3d0ef5c83d832232U, 0xbdd7f2d23cec2a30U, 0xbd27ceb8bcbe5088U,
  0x3c08dfa0bc8fb7e0U, 0x3de7ce7e3de3494aU, 0xbd16c0bcbdb62d62U, 0x3bbbbea03c8c8080U,
  0x3cb29d703d28dbecU, 0xbdc998323d3884acU, 0x3d9d1fce3cf88ec0U, 0x3dfbc594bda67422U,
  0x3cd783183de20f06U, 0xbd4581543db5bc30U, 0x3befc000bd2e2984U, 0x3da9d5d4bd601a64U,
  0x3d4af5f0bd3420e8U, 0x3d8f803c3d1597bcU, 0xbdb12eae3da4bd18U, 0xbde50f80bd427988U,
  0xbdac2ab8bdbc270eU, 0x3d449848bcfa97a8U, 0xbd969ad03d10bd1cU, 0x3d28aec8bce2f040U,
  0xbd22f3243d6fa374U, 0x3c7f15f03d5669fcU, 0xbdf87a1abd341394U, 0xbddcc48a3db469b0U,
  0x3d61ff583d776b50U, 0xbc008be03dfe3572U, 0x3d962f2a3d9083b0U, 0x3d4e90043d9af734U,
  0xbd8b7e883aa42980U, 0xbdb607d2bd0190f4U, 0xbd98ab9c3d9b9c18U, 0x3dbac038bd0f6afcU,
  0x3dec9c943d53bb44U, 0xbd034054bdca053eU, 0x3c8090b0bdfa558eU, 0xbd7fa77cbb73a980U,
  0xbccf9768bd3fae58U, 0x3cc16490bd5cf5acU, 0xbdcd8a96bcf01de0U, 0xbdc3cf6abd9f131cU,
  0x3d42bd9c3dc9e960U, 0x3df3cfaebde199a0U, 0xbdd8d6303dd389f0U, 0xbdfa4418bd940b7aU,
  0xbd964bc2bddbf434U, 0x3c5be0a03de1fba4U, 0x3d9c8c80bd741accU, 0xbdc1ce023d175540U,
  0xbdcf0724bdc92eb6U, 0xbb4d3280bd9362ecU, 0x3de9288e3d11a978U, 0xbdb9f746bdd3a67eU,
  0xbd87cbfe3b38e780U, 0xbde4f852bca3cf50U, 0x3c23a1d03def9b1cU, 0x3a6ad100b8be8800U,
  0xbcc511b83d04bce8U, 0x3cffa7e8bd5c2f98U, 0x3db33fb43c2a1780U, 0xbdaf233e3c75ecb0U,
  0xbce83190bdaef2d6U, 0xbc2e57d0bdc75f52U, 0x3da53c283de9a00aU, 0xbd402d483d2f8b74U,
  0x3db954bebcf26838U, 0xbdbcfc0a3db5eebcU, 0xbdabfc08bdd945deU, 0x3d9cc76ebcfc0938U,
  0xbdbdb5d03d1c68c0U, 0x3d72b6cc3d5a6420U, 0xbdc3574abd053f04U, 0x3dbbc0e23db9fa64U,
  0x3c4664703d974536U, 0x3dc9d30a3de2b484U, 0x3dca00c8bd9c7f74U, 0xbc9c0568bd8d42d4U,
  0x3d5cc1a03d078f38U, 0xbd5eed543d5c6864U, 0xbdc5364cbd8f8f2aU, 0x3dd08f8ebddd60b6U,
  0xbd8cac22bdf9a76aU, 0x3d1f4888bcde2128U, 0xbce2fa90bd2c57c0U, 0xba8e3f003de7e452U,
  0x3d85274cbdb470b2U, 0xbdce2580bdd56a9cU, 0xbd87ed84bdbcabaaU, 0xbb256800bd12340cU,
  0x3d7fe7d03cd08d88U, 0x3dcd0df43dccf364U, 0x3d211a883d3e5644U, 0x3d4b86fc3cb0f708U,
  0xbd552a383d9f0b7eU, 0x3cdd0fc0bd99fe32U, 0xbdec3e423c825968U, 0x3d1e4d28bd4a6690U,
  0xbc9d1c583d4d6c40U, 0x3dfcb7b2bd078accU, 0xbd30f7183cdf49b0U, 0xbd2454a03dbc22aeU,
  0xbd8b6fccbdf54726U, 0x3d1336383d67b14cU, 0xbdcb6de83c0f7280U, 0xbd5cbbd83dd9947eU,
  0x3cb28c083dee2076U, 0xbd9ffed2bdd5e45cU, 0xbd8f5ad4bc0ac200U, 0x3daf6d243d67ab28U,
  0xbda0ef323d5d7920U, 0xbc13f0503c7c1690U, 0x3c8783b0bd520648U, 0xbacf33803d651008U,
  0x3d1d76603d3ca74cU, 0x3c0b9500bc91cf08U, 0xbd8486123da2c368U, 0xbcfcab08bdd3c4b4U,
  0x3dc442903d977346U, 0x3ddba85abde1c11aU, 0x3c9c5c70bd601598U, 0xbc6995f03b1103c0U,
  0xbd1a30b4bcef3190U, 0x3db50272bcf53d78U, 0x3ddc87aabdc2fd40U, 0xbcf02068bd0aee38U,
  0xbda732743c873b88U, 0x3a456300bdd9e416U, 0xbdb0f7c0bdaaca48U, 0x3d47ebc03d065028U,
  0x3bdb8e403d8ec7f6U, 0xbd6d4a843d84b3f2U, 0xbd7c1540bdf05d52U, 0xbd00d7743dd5a4b6U,
  0xbcade0283a457f00U, 0x3d2b28483b874280U, 0xbdfd3606bded1f72U, 0x3dcad94ebd9bfe9aU,
  0xbd9f361ebdc05218U, 0xbd604f643dce4728U, 0xbd844b803dada574U, 0x3d9d01dabdbe9a2cU,
  0xbc9ef100bdae9f26U, 0xbcac3b903c6e0d70U, 0xbdb036ccbd3223b8U, 0xbd9655fabd692a54U,
  0xbd8ac7583dd741e0U, 0x3def7aa2baedb200U, 0x3d948ee2bdb178faU, 0xbd6b42bcbd73c7c4U,
  0xbddbb6cc3dbd8fb4U, 0x3dcfc4f6bd9b4420U, 0xbc3725f0bc56b380U, 0xbda97b4a3da59018U,
  0x3c361290bd4e1ffcU, 0xbddc0b063dd1fba0U, 0x3db4fd4abdacb6a8U, 0x3d601d5c3c1075d0U,
  0xbd8b87f4bd4d6900U, 0x3a0b5f00bddbbfdaU, 0x3df816c4bd246cecU, 0xbdef571e3d8204feU,
  0xbd1b57203d7f8cd8U, 0xbcddf9803da91db4U, 0x3df2dcd03dab3410U, 0x3de83aeebb664240U,
  0x3dd40112bcc136c8U, 0xbdfc6148bc536a10U, 0xbde1a7203d18bfdcU, 0xbcde5250bc821258U,
  0x3de488c83da34528U, 0xbdfbcf503c173490U, 0xbd3f03883d910466U, 0xbcefdce8bdd22d4eU,
  0xbde42b30bd0a4ca8U, 0x3cb786003dbdab36U, 0xbdff11783cd4c8b0U, 0x3cd19ad83cda6430U,
  0x3d72db343cfc4118U, 0x3be31d00bd7f8a74U, 0xbdfbe188bd578f8cU, 0x3d5ac020bdd70beaU,
  0x3d3402fcbdb05c22U, 0x3d0c47703de956c4U, 0xbd306b303de567a6U, 0xbd3566a0bc8c89a8U,
  0xbd9ce35abdba2156U, 0xbd90550a3d2fad48U, 0xbdc2427cbde605d0U, 0xbca9cb483c960268U,
  0xbdc24e1a3dd0c75eU, 0x3cbaaab8bdf6236cU, 0xbd92f3703d96d634U, 0x3dc754603d01dac0U,
  0x3db08e363d937adeU, 0xbc3d51703cdac7d0U, 0xbc4eb5003dbd0ba6U, 0xbd1b4a44bd746f44U,
  0xbd31f1c83c52c200U, 0xbca52b90bd526c10U, 0xbbf6fde03dae15a0U, 0xbd944d5abd844450U,
  0xbd36f0fc3c8a96f8U, 0x3d9112703dded7e4U, 0xbdcb8e32bd397b70U, 0xbd5c43083dd4f1d2U,
  0x3d8394b6bd9eaba8U, 0x3d425288bbeda2a0U, 0xbd89e4e4bdf80d38U, 0x3cb028183d477ff4U,
  0x3d518b2c3d43b5fcU, 0x3dfe51c43ddd8836U, 0xbde53b523df22278U, 0xbddb26a43d0e6484U,
  0xbd337c143daaad5aU, 0xbd92cd02bb93ab80U, 0x3de71076bd80a668U, 0x3bed11803d59c394U,
  0x3d83daf2bd956d80U, 0x3d7f369c3d8d855eU, 0xbca337083db00064U, 0xbd66c074bd740700U,
  0xbdd54a923db13a24U, 0xbdafa0e03dd5db00U, 0x3d5993e03beef140U, 0x3dcb027ebd372c74U,
  0x3ddd9dde3d9c7106U, 0xbd338d843d2da9dcU, 0x3da0f7fe3df4c3acU, 0xbdf0aaf43b69da80U,
  0x3d228ab0bd9a56beU, 0xbcfc39283d4ee64cU, 0xbde10146b8d6c800U, 0x3d1e95a43dfb10d2U,
  0x3d624cd4bdb5315eU, 0x3de2c94e3daff562U, 0x3d9604ecbaa67100U, 0xbd2f995c3ded67ccU,
  0xbd01c2f03d0afca8U, 0x3d8a57dabd90e8eaU, 0xbd92c6403cac5cf8U, 0xbdbaf5823b01b880U,
  0x3dfcf510bddf7b94U, 0xbddc3a8c3b4be440U, 0x3d75d3cc3ddaf066U, 0x3d32f8583d62e818U,
  0x3d591a68bdc13decU, 0x3d3bbca83d20f6dcU, 0xbc143ab0bd841ee2U, 0x3d28ee643dc4ca3cU,
  0x3daf84823ba5fca0U, 0x3d5c16883df830c6U, 0xbde68d80bd8187fcU, 0xbdd217eebdaea596U,
  0x3d1d7a343c4a9360U, 0x3db539bc3d8fd676U, 0xbda627603d46dc74U, 0xbdfac7bcbdee9496U,
  0xbda98b843cb6ba70U, 0x3c8f6d80bcddfd70U, 0xbd4239f43d3e9cd8U, 0xbc6ba830bd6a7700U,
  0x3bdb07403c08dc30U, 0xbde2d5c03d80c316U, 0xbc916a703d7295e8U, 0xbdcddf56bdeb6c72U,
  0x3d4918783dbf28feU, 0x3d40efe83d951376U, 0xbd9da9f2bd93fc8cU, 0xba097e00bcdeb408U,
  0x3d68512c3dd5936aU, 0x3ce255e83db5c91aU, 0xbd9c39883d9d0256U, 0xbd0042a0bce5b700U,
  0xbd6e3a18bcd2f9b8U, 0x3ddc50943d3ef7c0U, 0xbdb953423da7359eU, 0xbd88cec4bddb037aU,
  0xbd3c31583d41f9c8U, 0x3d47ee443cb8b4f0U, 0x3d4b1c103d2aa518U, 0xbda25cd43c086400U,
  0x3dcad70abcd84370U, 0x3df5895abdc86018U, 0xbdcb78c6bd9dfa5cU, 0x3df014f4bcc1be48U,
  0xbdb066c8bcb027c8U, 0xbd5bdf183de17510U, 0x3c9c49e83dca7e7eU, 0x3d23f55c3d467664U,
  0x3d91571c3d923e7eU, 0xbd2d547cbda3d5baU, 0xbc87fb403c385900U, 0x3df5b0883c910c78U,
  0x3c26bb603db3b05aU, 0xbd9d86f03dd1c152U, 0x3dcafb38bdc85438U, 0x3d34f900bdab6320U,
  0x3daf71b6bda84652U, 0xbcbeef48bd905334U, 0xbd74378c3df73f42U, 0x3d68154c3df3e64aU,
  0x3d12d0a83d75720cU, 0x3d5e7db03db98188U, 0x3d37aee4bd8d225aU, 0xbdeee4163d5749b8U,
  0xbdc6c9ccbdeec8c0U, 0xbd1380583da405e2U, 0x3d0092acbd970aa2U, 0x3c5e5a203c97ee50U,
  0xbd84f066bcbf7f38U, 0xbbc556603dad56c2U, 0x3d8b3758bdd404d4U, 0x3d74f2943d2c5b74U,
  0xbd5236dcbddf5ab2U, 0xbd09a6e8bdf8e554U, 0x3cbaa2f8bd93c14aU, 0x3d03c0c0bdf5787eU,
  0x3c9667f03d252d38U, 0x3d767d64bd55e4e4U, 0xbc7dc4e03d4f4f34U, 0x3d3900c0bd3ad000U,
  0x3cefb4083dbaa12aU, 0xbcc623d03cba95f8U, 0xbd8bb5d63da41a96U, 0x3ac921003d849b04U,
  0x3c7f1e00bd018778U, 0xbd907340bd81498aU, 0x3ddf598e3dc53c0eU, 0x3c10b790bd288244U,
  0x3d9041e63cf301b8U, 0x3d18b7ccbdca1258U, 0xbd7c6ba4bc98b840U, 0xbca354c8bd0cd0b4U,
  0xbb647680bdf0f9c8U, 0x3c879d383cdb9c18U, 0x3dd6dd7c3df5f4eaU, 0x3d284954bd01e1b8U,
  0xbd2d52fc3d988834U, 0x3ddbf0ae3ca75428U, 0xbd69a4203deb4b66U, 0x3dd29d843d10ff74U,
  0xbdb6b0803d5b95d8U, 0xbdb6705cbd34b490U, 0x3da5c2403ddcb904U, 0x3d5cba88bb428dc0U,
  0x3bc249a03d135794U, 0x3b09e9003d74b6c4U, 0x3df15b303d041e0cU, 0xbdb8f114bd3dcc88U,
  0xbdb3ca503cedab78U, 0xbd9ee1ae3d4a1e0cU, 0xbc51c9b03d7c2d14U, 0x3dfb5882bbd4fb80U,
  0x3df86bda3ce6c078U, 0xbdb6b54c3da3027cU, 0xbcbb9ea0bcdb0d40U, 0x3d1101c03cfc1918U,
  0x3d19f77c3db6e646U, 0xbd86e036bd693f3cU, 0xbb94a140bdc568eeU, 0x3d806c42bdb5f618U,
  0xbdd45b6ebd4ab4e8U, 0xbdf44a923d26f990U, 0xbca1dd983d970076U, 0x3b590c80bdd3f06eU,
  0xbd939ed8bcb03b10U, 0xbdbd34f8bd85bfaeU, 0xbd10954cbdaef450U, 0x3b363c403bdafe20U,
  0x3b570680bd99ae42U, 0xbd80ffeebdc28cfeU, 0x3ae22f803dd961b2U, 0xbd4cb37c3dc05360U,
  0xbd0333483ce609a8U, 0x3d899018bdf6b822U, 0xbcc62880b927b000U, 0xbd97c970bdb87608U,
  0xbd0bdae83d7103ecU, 0xbd1bd6b0bd1edcacU, 0x3daaf5ea3d9b0e66U, 0x3df7820abd4e35e4U,
  0xbd93bc4ebdfb3c2cU, 0xbcc15df0bde70660U, 0x3d68b9f8bd94e522U, 0xbd960eb03d38f1ecU,
  0xbd3bf118bb9b1160U, 0x3c872cc03d22446cU, 0xbdfeb1c43d2f083cU, 0x3daba2a8bd2007dcU,
  0x3db26f04bd6e564cU, 0xbdce64babd97fab0U, 0x3cadf6703d8955d0U, 0xbd73d29cbcc56368U,
  0x3df1aa7a3d6f5c7cU, 0x3d909be4bdd18086U, 0x3dfa2b8e3c1efe50U, 0xbcbb7d683dfab656U,
  0x3c820f883d38ffecU, 0x3cb525003d2bfa90U, 0xbdb113f0381a4000U, 0x3d9adf3c3ca9a9d8U,
  0xbd9e0208bddf3aa0U, 0x3d91fc043d0e2250U, 0xbd06260c3d5b4b54U, 0x3deaebd23dd7650eU,
  0xbacd4c003dfbcbcaU, 0xbd9701cabd614e4cU, 0x3be34aa03d270240U, 0xbd2397dcbdf50706U,
  0x3d86a44ebd9b9084U, 0x3d8f719abdb2c510U, 0xbcfa12e8bdde8f58U, 0xbd179684bcac4778U,
  0x3d61462c3dbe7e32U, 0x3d1bb8a4bde99368U, 0xbd836c923d87412cU, 0xbdfc1b04bd9f5c70U,
  0xbd418538b9f4c200U, 0xbdf7ab06bcf457a8U, 0x3c80a7d03a985c00U, 0x3d866a123dcc2ffeU,
  0xbdfa30bc3b5a0700U, 0xbcfa55d8bd48687cU, 0xbde2f0f0bda3beeeU, 0x3db7eee0bdd41396U,
  0xbdd65fe0bde455a2U, 0x3dd55772bdeeb390U, 0xbc2c2ed0bcdc2348U, 0x3d80180ebdb62f4aU,
  0xbdc95f923db466a8U, 0xbce81838bdadc78eU, 0xbba32080bded27e6U, 0x3dd421723d3fb7a8U,
  0x3da7efc8bd08b794U, 0xbd96ec16bd8b40dcU, 0x3cb8a320bda7429aU, 0xbdbe0258bdf4ddaaU,
  0x3ddf53223d6be368U, 0xbdd47e8abdccecb6U, 0xbddb3af03adf1f00U, 0xbcb462003dd0cb32U,
  0x3cd9fa883daea052U, 0x3dc186c6bd28db80U, 0xbd36c304bd374c6cU, 0xbd51d5883d0d1f84U,
  0x3d1979f83db4b5d0U, 0x3d4827cc3cb89968U, 0xbd0b674cbd2e3c14U, 0xbdc98f183d546c84U,
  0xbdf1141c3dc37d56U, 0x3d9c897abd4ded24U, 0xbd522dd8bd867b56U, 0x3d22295c3dcba6b4U,
  0x3d973ceabd8b571aU, 0x3dfc058ebd530e80U, 0x3cb08980bd4c2498U, 0x3d873a183d8fe09aU,
  0x3d06f1fc3d2fc1ccU, 0x3daa5cb83de40b98U, 0x3da8175abda99af2U, 0xbd0a9ad8bde56d24U,
  0xbc894f88bd8638b4U, 0xbda74c00bd90524aU, 0xbd7612d8bd89117eU, 0xbcf89a703b9a78a0U,
  0xbd6a3188bd6276ccU, 0xbb45e4c0bcf51830U, 0xbd214a5c3d81cec4U, 0xbdf69c2e3dcde36cU,
  0x3db80b62bb0dacc0U, 0xbcb0b790bdd9ebfcU, 0xbcf092503dfe28ceU, 0x3dbd38ea3da2725cU,
  0x3ccf41283d4d9a68U, 0x3d23ed04bc5d9f70U, 0xbde4434e3c8cf650U, 0x3d039cdc3d0029c8U,
  0x3dfaeda4bd2366b8U, 0xbd1e47303c8ae588U, 0xbd3104ec3ddf17b6U, 0xbd1f23b03ddbc9d2U,
  0xbda0a3323c9a52d0U, 0xbd7d3658bdafc144U, 0xbddadf683db67792U, 0xbbf0e0803dd1ea82U,
  0x3d06ccfcbd223d04U, 0x3deb652ebdb691aeU, 0x3dfde8d0bb6bef00U, 0xbdf60b7ebda69ff0U,
  0x3d845768bce6e000U, 0xbd7f76f4bbfb2940U, 0x3c350c60bd6c55a4U, 0x3ca86bb03d4406f0U,
  0x3dbdfe8a3c686690U, 0xbdebb182bdd53bf8U, 0xbdd16a44bdd0653eU, 0xbdb707683df0d7d4U,
  0xbd17dbb4bd28c1d8U, 0xbde2db683db4c7d0U, 0xbc636670bd35aebcU, 0x3da5af36bdb9fecaU,
  0xbdbba1d0bdc5a62cU, 0xbd88a4743dcb8fd0U, 0x3daf3faa3dd95fc8U, 0x3d3d06703df210beU,
  0xbde4db72bcd41098U, 0x3defc3bc3da3f19cU, 0x3db686223d84a58aU, 0xbd9a957a3d95ca1cU,
  0xbd9c14a23d1dd854U, 0xbc8a6c383dbfc1baU, 0x3de9f8e2bcd4c0a8U, 0x3d0515e0bd72cc98U,
  0xbcab7b00bdb6702aU, 0x3b5cd1403dbd8e6cU, 0xbddafadebda0f8aaU, 0x3c99e7283de0f9e6U,
  0x3dc5c37e3de21954U, 0xbcaa6328baebaa00U, 0xbdb6e898bca32798U, 0xbdd0b4943d791ba8U,
  0xbbb69dc0bdb86bf4U, 0x3d2dd4403cd0cbe8U, 0xbd4b17e8bd3dd8dcU, 0x3df36bd6bd9d65e8U,
  0x3d6fb4e0bdbbb1b8U, 0x3ce9a708bda52acaU, 0x3dbb52683d35a110U, 0x3dd00ff43da88106U,
  0x3d661d303d89749aU, 0xbdcefa78bc437510U, 0xbc1f13a03dc93266U, 0x3d9c12f23d86fbeaU,
  0x3dda29003d9dd7e8U, 0xbdc107723d72c1c8U, 0x3c3e02b0bd042104U, 0xbd62c854bd5385d0U,
  0xbb2e37c0bd130808U, 0xbd3df1503cc25228U, 0xbdd93e8a3d52ddf4U, 0xbcdfb0f8bde006acU,
  0x3c218ef03ddf047eU, 0x3df800903d60cce0U, 0xbdfa9750bc4371e0U, 0xbdcb22e83c89e128U,
  0xba4f6400bcaa0858U, 0x3dfac3b43dadfdf6U, 0x3c941fe0bdbeeadaU, 0x3a10b000bddc713cU,
  0x3dd53a74bd4cb814U, 0x3d189d00bd1cd8ccU, 0x3ba359403dc0f65aU, 0xbbb2e600bd2eb21cU,
  0x3cc10ca03d56674cU, 0x3d39f9683a8c7600U, 0xbdd81eb6bceb78f8U, 0x3d96a3d8bd9865aeU,
  0x3d9fd33a3df8719eU, 0xbcb755983c8be008U, 0x3c957db03d7c1cf0U, 0xbd9f5fae3cb4fb50U,
  0x3da30bfebdc72de4U, 0x3dca2318bdf31b86U, 0xbd8b22483dcde344U, 0xbd69bbfcbd462494U,
  0x3d9cb3ea3d4e6798U, 0x3de6b920bc5cc440U, 0x3d41aa94bdb3ba2cU, 0x3daffc12bdeae57cU,
  0x3d762cd83d733f00U, 0x3dd9b74abdccb18eU, 0x3d829282bdf49892U, 0xbc86e2d0bc924ef0U,
  0x3d52fe50bbda3ea0U, 0xbc83e7403cd32f50U, 0xbdd3c8103df09e3cU, 0x3dc670743dd61e22U,
  0xbaf515003dd15d20U, 0x3d33a814bc260a40U, 0x3d08a0643c78cc90U, 0x3da96000bd66e0ccU,
  0xbc5d0190bd933cecU, 0xbdadc9c63b4d2300U, 0xbdad48ce3de10b44U, 0xbaf1ed003d3d5160U,
  0xbc71e9503b6dd6c0U, 0xbdc6b0e8bd94fc12U, 0xbdc088103d8ea772U, 0x3ca6dd203d5bfb1cU,
  0xbdcb7f303d8ee37aU, 0xbdcdf6523de14fa8U, 0xbdae96b23ce0d9f0U, 0x3d206198bb0ca180U,
  0x3d6f1130bddcbfbcU, 0x3dd2f7043db9c72aU, 0xbcb9f238bcd8cd40U, 0xbcd4daf83c5b55b0U,
  0xbdf49400bdc788b6U, 0x3db92cfcbd24f274U, 0xbbd1db803de38f5cU, 0x3c1835f0bd96588eU,
  0x3acabb80bd8459b4U, 0x3d95d3e63ce260a0U, 0x3dd67a0ebd8f553cU, 0xbca194403dbda4e0U,
  0xbdc93a02bc376a60U, 0xbc8ab7b83c8880e0U, 0xbc47cd703d420e94U, 0x3c2858103d72971cU,
  0xbdb3cefebdeb5d32U, 0xbbaf1f203a88a180U, 0xbc777510bcfe8828U, 0xbd8a0c183dd637c4U,
  0x3d0493883dc7ba38U, 0x3bde38403d1bc9bcU, 0x3dbae00ebdb1940eU, 0x3d3dfd303daacd1eU,
  0xbda28fbebd2d1394U, 0xbdd598c0bdcfc534U, 0xbb7de1403c908140U, 0xbdfcfe063c6a5690U,
  0x3d73bf643cff6308U, 0xbd079554bd1ec840U, 0xbd2bcff03d8318a8U, 0x3cab27303dcb3c2eU,
  0xbdefacacbdfecf70U, 0x3dba26aebdfcced0U, 0x3da373783dc1452cU, 0x3dc4a114bd5c2238U,
  0xbd36333c3cee8af8U, 0xbdd1686c3d233440U, 0x3de75d4abddc0118U, 0xbd02bcbcbc44cd00U,
  0xbdbcf7003c98a550U, 0x3d6025d83d96af9cU, 0x3d43e99cbd8d9322U, 0x3de0f6763cb2f038U,
  0xbda3db50bd62f250U, 0x3ac7bd003ddd4922U, 0x3dbc5c26baaf3100U, 0xbd6e8c28bde0d4f0U,
  0xbda55d583bc34d60U, 0xbdf1c7f6bd4a9208U, 0x3de67bc8bc95d668U, 0x3dfff4e43c8202c0U,
  0x3d5ff3683da34f74U, 0x3d8c2bb4bd071c10U, 0xbdcf894ebdd349d6U, 0xbdb5b3483cebc0c0U,
  0x3c341cc03c992970U, 0xbc721cd03d423500U, 0xbcfb43c03df4b27aU, 0x3ac7be80bdd4c7b0U,
  0xbda299b43abe4d80U, 0x3ca40ce83bb627a0U, 0x3d86631a3d836e7cU, 0x3d2ac7483dc26f02U,
  0x3c2acec03d8128bcU, 0x3db44458bd17e808U, 0x3c155200bd40cc58U, 0xbd1158003acf8d00U,
  0x3c1889303cbf0ba8U, 0x3dd2044e3d2f32a0U, 0x39bb0c00b9ccba00U, 0x3cb041203d08885cU,
  0x3dc9d160bdae48feU, 0xbd903a1a3b7dc380U, 0x3ddfd42abcd8a238U, 0xbdb47e1a3d80045aU,
  0x3c1777703d3ea9c4U, 0x3d7944c43cd45b20U, 0xbdfd3b5cbb00a500U, 0xbdd6ed48bdc5c4d0U,
  0xbddda4683c98fa80U, 0x3ddc35be3da40f06U, 0xbda8a0ce3ca79060U, 0x3dd2cc46bd0284f8U,
  0x3d7967f4bdf53602U, 0x3dbcf87abc1dd350U, 0x3c864c283d00b3e8U, 0x3d9c9ea0bdfc0d26U,
  0x3d86a9343c24a3f0U, 0xbd95a8cc3d04f3dcU, 0x3dd7dbc2bddb8e7cU, 0xbde4e1883d24fe10U,
  0xbdc9d23ebd5de804U, 0xbdd65e96bdf024eaU, 0xbd92c68abdfac5b8U, 0xbd8996b8bb9c0540U,
  0x3c978c383c328be0U, 0xbda749febddf5824U, 0x3dfd4ea8bdbdc270U, 0x3d9625c83d225e40U,
  0x3d06d8503d503058U, 0x3d893fce3d13e8e0U, 0xbd48e408bdcde996U, 0xbdd518a4bd90f13eU,
  0xbd1db0303de17030U, 0x3dea01e8bdf9a4b2U, 0x3d244c783d3fa3ccU, 0x3d90fa08bcde20f0U,
  0xbd908756bd662330U, 0x3b9dc500bdd703c2U, 0xbdcda62a3cc51ee8U, 0xbcc37340bdaeb342U,
  0xbd7edadcbdbdb566U, 0xbddc36b03d971eeeU, 0x3d0202a4bcd86390U, 0x3cc351303daef6d2U,
  0xbdd89d8abdc457e4U, 0x3de5c52abd8aba06U, 0xbd6d28fc3d4e3a10U, 0x3dd92ce6bdeda786U,
  0xbd5e7fa0bbad8960U, 0x3dea9a023dc3c8baU, 0x3d9279acbb40b0c0U, 0x3b252040bd9a32a4U,
  0xbd1629443d7bb580U, 0xbd2e7ec4bda6eabcU, 0xbdc901ee3de489acU, 0x3de06aca3df0d144U,
  0x3d0e6f60bd22a6d4U, 0x3ce32450bd46bdc8U, 0xbc3f68503dc44b9aU, 0x3dede6923deb8080U,
  0xbdd4020cbd8b1074U, 0x3df925023d888044U, 0xbdc4d87abdab7cc8U, 0xbd9acfc8bd5ba648U,
  0xbde3008e3dcafa20U, 0xbdcff3f83cd219f8U, 0x3c90a738bde70822U, 0x3df9101abd3526ccU,
  0x3dac030c3d7c2b68U, 0x3d916aaa3d0d3cc8U, 0x3dcd7d4e3d933c42U, 0xbd39e344bc879398U,
  0xbd8051c8bbfc5760U, 0x3dd3f9aabde4b030U, 0x3d8066103dbc4d22U, 0x3dd0b5583d8f30c6U,
  0xbdfbe40e3dd0ed94U, 0x3dc07f8ebb9f1c80U, 0x3dba381a3d1c3bf4U, 0xbd83980ebdd4cbfcU,
  0xbc8c42803b751600U, 0x3c8a57b0bb435d00U, 0xbdf3bcbe3de0aba8U, 0x3db2e25abdd5a55aU,
  0xbb3766c0bdd107caU, 0x3dee170c3cd106b8U, 0xbd43c57c3c8fd4c0U, 0xbdc0a07e3d890fdeU,
  0x39be2200bce56490U, 0x3d6c59f0bc01b420U, 0x3b4930003db34caaU, 0xbc77eee03d6f2ab0U,
  0x3d9c2684bd5ccce0U, 0x3c975ee8bd076390U, 0x3d5f2880bc71e010U, 0x3c95b0e8bdafbc9eU,
  0xbde4f0323d9054faU, 0x3dc9196e3cca7ba0U, 0xbdcf4e8a3d633ab0U, 0x3d8f490abd97fd96U,
  0x3dc7538a3da7975cU, 0xbd85fd203dcadba2U, 0xbd1b4430bcc5c448U, 0x3d493fb83deb73a4U,
  0x3b798a00bd73eac4U, 0xbc38c4b0bc02b280U, 0xbd2024d43dcd72f6U, 0xbd0e06b43d877d08U,
  0x3de5ce48bda2a72cU, 0xbd2de1d43d00dfc8U, 0xbd6b5f603ded4002U, 0xbcd8fbf03d5ad330U,
  0x3daa6824bd6f9e1cU, 0x3cc95868bbc73220U, 0x3d79cb3c3d9ff31aU, 0xbd9c19a8bdff9dbaU,
  0x3ca8a9903dae6ce2U, 0xbd269974bdd74316U, 0x3c9c9810bd743b38U, 0xbc995630bd89399eU,
  0xbd8dc10abda0db50U, 0x3d6b25b43cc6fb50U, 0x3df8634a3dc772faU, 0xbd2e7c84bca59578U,
  0x3d0afd5cbd2fc740U, 0xbd3dc118bdfafb7eU, 0xbd4dd0503b8f3240U, 0xbdbddce8bdebe1aeU,
  0xbde58f263c1dbfc0U, 0xbdee49c03d6948c0U, 0x3d648130b9242000U, 0xbac7dd803df932a0U,
  0x3c9be6d03d9864c6U, 0xbd9aa8e83d4bb73cU, 0x3dc768a6bded9824U, 0x3d0312a43ce738b8U,
  0xbc0dabf0bc8abd88U, 0x3dc0244e3da569fcU, 0xbab24180bcf23f00U, 0xbdf3b5783d43e7bcU,
  0xbdaf9c60bc81c9b8U, 0xbdf2a470bce4fd80U, 0xbc248ba0bd51e758U, 0x3dad9752bc5b49f0U,
  0x3d7e59b03dd83d7aU, 0x3da5e224bd658cb0U, 0xbc150ed03da9cfb8U, 0xbdd45a3c3dc1105eU,
  0x3ca99bf83d26087cU, 0x3deefaae3dd01342U, 0x3dae722cbd39322cU, 0x3cd43a703ac65d80U,
  0x3d59dc943cc85f00U, 0x3d8a239c3da74e5aU, 0x3c438f103dd97062U, 0xbdf4727e3de758eeU,
  0xbcd59738bc23c7c0U, 0xbcd8aa00bcaa3df0U, 0xbd2da7d8bd348accU, 0x3d9837063d790eb8U,
  0x3d9c2b18bdfb12f8U, 0x3da1b54c3d6f6d74U, 0x3dfe9ba8bd181384U, 0x3dbd252ebda23d52U,
  0x3dc7fb06bd4cca8cU, 0x3dfc6036bde0f8bcU, 0x3daea4ae3deec9f4U, 0xbddaf6ae3c61b090U,
  0xbce6acb83be9fd00U, 0xbbf442403dacb1f0U, 0xbcb79c903bb68e40U, 0xbd09d08c3dab7d64U,
  0x3dc5aac8bc8a6750U, 0x39f52c003df2f3d2U, 0x3dc92bb0bde93408U, 0xbc54ba30bdea9388U,
  0xbdb2bce8bdd9679eU, 0xbd63b38cbd053268U, 0x3d91b7d23d9db89aU, 0x3d3785343c974950U,
  0xbdec02963cbac490U, 0x3cc27d383d99d950U, 0x3ddceb4e3c38ab50U, 0xbc40bae0bde159ceU,
  0x3df908223cd50e70U, 0x3c9e94f03dbf0ce0U, 0xbdbf71d2bcdacf20U, 0x3cbb8c403dab35ccU,
  0xbd736300bdf8a792U, 0x3d3b5c103df28aa6U, 0xbd87e9b83d1c2af0U, 0xbce486283d5591dcU,
  0x3d7ee73c3d3def64U, 0xbd5615483ddcccecU, 0xbdba197ebdd20aeaU, 0xbd0655543dd10e12U,
  0xbcc5b4f0bd3bb8b0U, 0x3dd4389c3d09b59cU, 0xbddd633a3df02a70U, 0x3d3861a0bd82ae8cU,
  0xbdaa808a3d8e44f4U, 0xbd5800bc3df9c982U, 0xbd1c6348bddc56b6U, 0xbd870dc63ac49e80U,
  0x3dcbd1003d1614f8U, 0xbcc915e83ccb0718U, 0xbd5922243dfd771cU, 0x3df9a1f0bdec646eU,
  0xbdb828b83d6af9bcU, 0x3df1376abcf88470U, 0x3c3c31d03db22724U, 0x3d4d75ac3deb3824U,
  0xbd956a763cb055d8U, 0x3c95dd783c2ef890U, 0x3de438283cf0f9b8U, 0x3deba3da3db7cfaeU,
  0x3d518d743d301330U, 0xbda67c623d1bbf34U, 0xbd429cd8bbad4320U, 0xbd43c9143dad2206U,
  0xbdb4754a3c1da400U, 0x3daa071abdbc10a6U, 0x3c81fb10bc4f22d0U, 0xbd43a934bd0bd160U,
  0x3d71b7b83d8b428aU, 0xbd6f50ecbc642b00U, 0xb80600003cd0f5c8U, 0xbda4bb143d8c0000U,
  0x3dba9256bb4de540U, 0xbbba81603d904ff2U, 0xbdabf96cbd41de4cU, 0x3dc16d9cbcfacc28U,
  0x3d8bcca63da6fe80U, 0xbc9f12a03d7da408U, 0xbdd7e856bd584320U, 0xbd96b6b23d8e41b6U,
  0xbda6fec63d20319cU, 0xbddc25f8bd32e984U, 0x3cea63a0bdab4bacU, 0xbc93ff283d5f3614U,
  0xbd8cacc63dd2eee8U, 0x3d715ae0bd7058e0U, 0xbce93d30bca4cad8U, 0xbdf8c594bdb77592U,
  0x3be577803c1e8800U, 0x3ddae6163d76b860U, 0xbd9b3f88bc9f6078U, 0x3cd15cb83df6a040U,
  0x3d4c1eb0bd0f3424U, 0xbca0d640bd000c28U, 0xbd7bacc03b0432c0U, 0x3cc4b2e8bdb0f032U,
  0x3da793843dc1249eU, 0xbdcfd30ebc95d248U, 0xbdeeacd2bdc22032U, 0xbd1ffbac3c3b8fa0U,
  0xbc2ef8803d82c88cU, 0xbdb8fb14bd21d9ecU, 0x3d22c6a8bb8df380U, 0xbdc36988bdd72e12U,
  0x3d953dcc3da832fcU, 0x3b891980bd86030eU, 0x3d92dd3a3daf606eU, 0x3cc6cd003db3409eU,
  0xbdcfc8b83d565648U, 0xbc1118c0bd8dbdd8U, 0x3df9e9463b41c680U, 0x3d8f61a23daa603aU,
  0x3d7adc5c3ce84470U, 0xbd83ad38bdfb36d2U, 0x3d8209be3dc30ea0U, 0xbd7c824cbd7133fcU,
  0x3c7530703da1333eU, 0x3cc95aa8bdcaac34U, 0xbd8f1cf8bdf6b14cU, 0xbda9ad82bd1e5a30U,
  0xbdad5a3c3d854d00U, 0x3dbfad103d105438U, 0xbda11a48bdfca6c4U, 0xbcad0468bdea8a76U,
  0xbd4557e43dbb0c22U, 0x3d6fe25c3dca9262U, 0x3d9a011eba9c8f00U, 0xbd92c9eebc8a99f8U,
  0xbd5d0000bdcb040aU, 0xbc389a70bcda6348U, 0xbd826046bdc9223eU, 0xbdb092ca3d99263eU,
  0x3d43a9b4bdae1366U, 0x3bb544003d84a9e6U, 0x3b7003c03d891ee2U, 0x3d9a31143b8f9c40U,
  0xbd57ab00bd30718cU, 0xbd9b5f9a3d134e68U, 0x3d8a006a3d9e59c4U, 0x3cfd5fe0bd8bd4a8U,
  0xbd399dbcbd5c4c1cU, 0xbd9b52e83c8660e8U, 0x3d83cf103dfed960U, 0x3d8bb9c03df30786U,
  0x3cae1888bdcc25f4U, 0xbdd4edc83dd9e9c6U, 0x3d4947d0bd90b5baU, 0xbd9cb0b2bd00ddf0U,
  0x3d56d7283d096190U, 0xbd9dbf2a3ddf95f8U, 0xbd556578bd822232U, 0xbd12a9c03d1c68dcU,
  0xbd4b867cbd3eb7ecU, 0x3df78340bdcf6346U, 0xbd9ca896bad32480U, 0xbdbc6f7c3d6c6ee8U,
  0x3c64cc103de2a87eU, 0x3da5fd0c3d81c458U, 0x3ca2abe03c1f6ad0U, 0xbdf4da78bdfe2a52U,
  0x3d1256d4bdbdbb4cU, 0x3dc5eb7e3b8a8f80U, 0x3dbaf428bdc2f144U, 0x3cefab283dfa8200U,
  0xbdbfe15ebccb4278U, 0xbd625ccc3d6b99ecU, 0x3ddb51a4bd299a1cU, 0xbdf25e0c3c03ca50U,
  0xbdd750303d1ccdd8U, 0x3d1636dcbdbce43aU, 0xbdc98e8abd03bfc4U, 0xbb857ae0bdf0b80aU,
  0xbd0e8c1cbb8caba0U, 0x3de373623c265390U, 0xbdb20c1a3d376258U, 0xbd2800983dba8198U,
  0xbdeaa2d03c8d1470U, 0x3d2797e83d8602c0U, 0xbdf8b5703de8243aU, 0x3ca20068bd8a473aU,
  0x3c51d0903ce5a7c8U, 0x3d81e91a3d3a6b1cU, 0xbb8b2e203d6c88e8U, 0xbdd3b0b23d92df48U,
  0xbd8b0252bdc09f62U, 0xbdfc36f8bd85b4a0U, 0x3d81d05abd14db90U, 0x3a9142803ca9d690U,
  0x3c045d203df3ad8cU, 0x3d142ee0bda4f4e0U, 0xbd1be768bd88c082U, 0xbd185ac8bc956248U,
  0x3ccb2608bd93a910U, 0xbdbfe6d03ddd57eaU, 0x3dcbf0223a84b000U, 0xbd87f9b8bd84f5f4U,
  0xbce455703d65b544U, 0xbde712343d939a5aU, 0x3c8573d83df82f4aU, 0xbc2531a03dc0185eU,
  0x3dfa7e703d4ea560U, 0x3d94b2c83dc13034U, 0xbccfdd783cb5c3c8U, 0x3cd856c83d65dbe8U,
  0xbdf556b83da3a310U, 0xbdcf3112bd3e0f38U, 0x3d5aca743da9df0eU, 0x3c4778f0bd816f98U,
  0x3c3b33803db408d4U, 0x3df3abb83df20302U, 0x3cddfe68bda1a60cU, 0x3d8befaebcf30cf0U,
  0xbdd8b8dcbd43a988U, 0x3cfbdc58bda13bc4U, 0x3d4942883d2f12d4U, 0xbce44188bd08b334U,
  0xbdc4ddd6bd1c6280U, 0xbdd718f6bdcaceeaU, 0xbdb59bfebd555f4cU, 0x3b2027c0bd9d4c2eU,
  0xbd85975abdcb6818U, 0xbddefea6bd2d3f38U, 0x3cf3ea88bd9dd2a2U, 0xbd2787103d922b16U,
  0xbd4b6a843dacb9f2U, 0xbdcf3222bd438fdcU, 0x3de577c0bdf50642U, 0xbdecca323dd5e6d8U,
  0xbdce44eabd8e96b0U, 0x3df90ece3de58cfeU, 0xbd9ec8e83d9d5ec4U, 0x3d82dd343cedbdb0U,
  0x3ced82203d4a48ccU, 0x3d4e83fc3cdeaf28U, 0x3d8047fabd98ec0eU, 0x3de82dbebdbbc536U,
  0xbd1d47a03dd4c870U, 0x3d5e1ffcbd6cc0bcU, 0xbd91df32b6828000U, 0x3c7943803d72e7c8U,
  0xbdf0637abdbf5980U, 0x3d80cc343c4b7130U, 0x3dd380763d04dd8cU, 0x3db40b863d025e3cU,
  0x3cfa43d0bd22cd28U, 0xbdf38412bdf7a64cU, 0x3dbb97aabbd7aa20U, 0xbd9dfc303d862a3eU,
  0x3d8209acbc70e750U, 0x3d6677d83d5ebc84U, 0xbd5b342c3d1d9550U, 0x3df4ab90bd6a46b8U,
  0xbdde2162bd6be048U, 0x3dadc3febd96969eU, 0x3c6e1060bd354bc4U, 0xbcf949303dfdcacaU,
  0xbdf6557ebdba72b2U, 0xbc69b3503d2f9ab4U, 0x3dcefbacbc8b6b48U, 0x3dd922a63ab93880U,
  0x3da142d83dd804dcU, 0xbded67a23d0f6fdcU, 0xbdf238963dc243a0U, 0xbdacd31cbdf7e478U,
  0xbded095e3c5c39f0U, 0xbda8e1e83b6da800U, 0xbbd705603d930af8U, 0xbc9f4fc8bdeb4950U,
  0xbd83c62cbdfbe7acU, 0x3db7b094bdf55a44U, 0x3d5431243ddddb40U, 0x3dc2b06abd28e608U,
  0xbdc2f5b03ac9d900U, 0xbd7e6634bbc68c00U, 0x3de2b4eebdf773e4U, 0x3dd54646bb487600U,
  0x3c0437b03d86d100U, 0x3c182810bdaa232eU, 0x3d8e72c2bd90bba0U, 0x3dddd6ca3c534ba0U,
  0x3ce41648bd27fd58U, 0x3ccbd9003db0e326U, 0x3d896f9e3da574deU, 0xbc4e8fe0bdf30a86U,
  0x3d7631683df656faU, 0x3cb83958bdcb01eeU, 0x3d2a08bcbd5c64ccU, 0x3defcbd03d0beca0U,
  0x3de7517ebd8bf62aU, 0xbdd7bf8e3dd9a268U, 0x3d6560983cf6c108U, 0x3dbca2ba3da74348U,
  0xbdf824303d2bfe94U, 0x3d4190b8bdc2912eU, 0xbdedcff43dff21daU, 0xbd0b5ff4bd6a2864U,
  0x3dc59b54bddc7510U, 0xbdecd942bdee30e6U, 0x3aa31080bd3330dcU, 0xbc83a5703dabfb7eU,
  0x3d231fd8bcd5b8d8U, 0xbdd780003bd73bc0U, 0x3d030360bd3fe374U, 0x3da0857e3dd6b0e2U,
  0x3d9aabe4bd015fd8U, 0x3d4c5880bd01fe34U, 0x3d8b97b63d0af3f8U, 0x3d0ca988bd4aa4a4U,
  0xbcbf9208bded7972U, 0x3d345844bdf89fd8U, 0x3ddf3390bc34b290U, 0x3d9a19983d0c0f90U,
  0x3df6a34abda41846U, 0xbdf671cebd18d9fcU, 0x3c90ce783c821560U, 0x3bd4f3e0bd9005ecU,
  0xbdea2d22bc4247e0U, 0xbd0aabc43cc4d3c8U, 0x3d8087f0bdeeb01cU, 0x3ae13a803de548e8U,
  0xbdfa4feabdcdc7aaU, 0x3dfa0d12bc9173a0U, 0x3decbd6ebda09eeeU, 0xbd5b1ec8bd710c70U,
  0xbd9c93a03d2fe0c0U, 0x3df7f1f43de41e96U, 0x3c6c49503cd0dd50U, 0xbdd085c8bd115f04U,
  0xbbc6d9003dd33a26U, 0x3cad2a28bc18eef0U, 0x3ddef9803daf18eeU, 0xbd1969183d1d0424U,
  0xbdbbae163d0bd12cU, 0xbdd0c8fe3d7efd7cU, 0x3d968d76bdf12c20U, 0x3d21a6ecbd81d656U,
  0xbcd8fce0bd40ec88U, 0xbd051ac0bde4137aU, 0x3ce771803d434d1cU, 0x3d9f0160bd4220b0U,
  0x3da725103ddf8a60U, 0x3ce07a503cde61b8U, 0x3dd87522bcbefe78U, 0x3d4195183cdefb08U,
  0xbb06d3c0bda5a2faU, 0x3db3ddd43d9eacdcU, 0x3ca8ee583db38a80U, 0xbd9f32403dbfcc78U,
  0xbc4672203d7fd7c8U, 0xbd908ebebc3a71f0U, 0xbd6de5e0bd39c788U, 0xbd2b12bc3d0186b4U,
  0x3ab3a9803de5eed6U, 0xbdeaf6c0bcfff580U, 0xbd8d23e63da3ae98U, 0xbd85f570bd1c1a30U,
  0x3d0726c0bc75bfb0U, 0xbcfe35f0bd9d91deU, 0xbb8d0ea0bdf56140U, 0x3d920f823dc7bb9cU,
  0xbdf66c28bdf90c44U, 0x3c182ad03db7f9acU, 0x3d990a66bd0d5774U, 0xbd5f10c43ca5caf0U,
  0x3c97c2d8bd108be4U, 0xbdded7ae3d987280U, 0x3c869430bd9bb090U, 0xbd2d447c3dfc0a6cU,
  0x3d988aeabda812fcU, 0xbcb001183d9c57baU, 0xbd2fd6783defc8d2U, 0x3deca316bdf0e004U,
  0x3d9958323c9a8f98U, 0xbd75cec0bd514e20U, 0x3d69878c3d92394cU, 0x3df43a1cbde93c1cU,
  0x3d7e46603dd0278eU, 0xbc765120bd3ca49cU, 0xbd56aa4cbdb018e0U, 0x3cccbfd83c670f50U,
  0xbddcfa103d63d330U, 0x3bb085a03db90390U, 0x3dcf66ae3dd9d582U, 0x3d80f6f0bd085b90U,
  0x3da73db43dfd74aaU, 0x3ddd443e3c8e16a8U, 0x3d11f1bc3d308b34U, 0x3dcecaca3df1015eU,
  0x3c91ca28bd316fc8U, 0xbda09c64bdfc453cU, 0x3d45d2e8bdd8ad08U, 0x3dda4fd2bc8f74e0U,
  0x3df2bcd6bdf3ba8cU, 0x3df90af2bd07545cU, 0x3c1ae3303d6e8100U, 0x3d9eb91ebddf37eaU,
  0xbdf7ec503d195878U, 0x3c3fe1e0bc070df0U, 0x3daa1d0a3dc6c24aU, 0x3dd3ad7abd5990e4U,
  0xbdc2fa56bae6d600U, 0x3dc36a42bda5c5b4U, 0x3db7b97e3dfd6108U, 0x3d4a9968bd4396a4U,
  0x3dcce7723da5ba38U, 0xbdc32e583c470110U, 0x3d87b0803d05c300U, 0x3df5362ebd9fb1daU,
  0xbd629da03d163958U, 0x3ce5cd58bdd8a474U, 0xbd45dc1c3dec5618U, 0xbd531a8cbd417ac4U,
  0xbd6952183c86b2b8U, 0xbd9288283c996890U, 0x3dee27243db95856U, 0x3d8b52543d91ff06U,
  0xbdb0a8203deeaddcU, 0xbd5023e4bdb962d6U, 0x3d2212ec3db50ac0U, 0x3d5451903d076838U,
  0x3c0092203d4fe55cU, 0x3c8be4a8bdd07f5cU, 0xbca511303cdbab68U, 0x3d00a6583d868d66U,
  0x3dbe2fa03c127c40U, 0xbd3cf5843d1e5aa8U, 0x3d88b3dcbd032e38U, 0xbda0d2c2bdc790f0U,
  0x3c965e98bce721c0U, 0xbddb74c43d38abb0U, 0xbb9d38e03db61aaeU, 0xbcfeea38bd00832cU,
  0x3dccdc16bd3a227cU, 0xbcf50b68bdd20634U, 0xbd877d9c3d9f7774U, 0xbd80b5923d904120U,
  0x3d5a6850baf27080U, 0x3d469ea0bdeeddbcU, 0x3c497300bcaebc40U, 0x3d0909e83dcc62ecU,
  0xbda5c9683d8265ccU, 0xbdeebb9ebda963d0U, 0xbdd69e94bdda52aaU, 0xbdcaa6f2bd3e450cU,
  0x3c602820bdfee25cU, 0xbca990383c9bbd40U, 0x3cc3d8f0bda17e30U, 0x3bdc22803dae569aU,
  0xbda639be3d20dfa8U, 0xbdac3db4bc1a5ad0U, 0x3db1cf4e3d5d8ec8U, 0xbd65dc44bd5daa3cU,
  0x3d246c443d5c0de0U, 0x3dc6c9a8bd442ac0U, 0xbd61a824bdde4526U, 0xbb9a04803da5ad62U,
  0x3dc3fb263d7198d8U, 0x3df052903d5b2c2cU, 0x3b9992a0bdfadf3cU, 0xbdb8ff50bd996536U,
  0x3d92d5f4bdad2744U, 0x3d7cab3c3d93221aU, 0x3da1e80e3ddac190U, 0x3dfb94babd2d3d34U,
  0x3dd478a4bd8cf9f2U, 0xbd771c18bd56cdc0U, 0x3d146e08bdb0c174U, 0x3d8d90c23dd4cfbaU,
  0xbd848ababdecea0eU, 0x3df19dd2bdab7018U, 0xbd07dc7c3dbf3b86U, 0x3dec6c783d881380U,
  0xbd8937423c8ac3b0U, 0x39264800bd3a0a70U, 0x3d9f3bca3d7ed368U, 0xbcaf7468bde52de6U,
  0xbd5a49583dda217cU, 0x3dfb7622bd330f48U, 0x3df965ccbd0f7210U, 0x3c48f780bd61597cU,
  0x3c15b370bdf7a148U, 0x3d4004a0bc149f10U, 0xbdd81852bd04e0c4U, 0x3d9a48b2bdb68fc8U,
  0x3ccaa1e83d055b20U, 0x3da1d5fa3d7fc17cU, 0xbcf53988bde76186U, 0xbd307a2cbda251f6U,
  0x3dc984423de96a68U, 0x3cc03658bddab508U, 0xbc880800bdf8ae0cU, 0xbdf6a6123d7c9900U,
  0xbcd00b803d9937f2U, 0x3d9fc924bd0d9130U, 0xbd0b29f43c829e80U, 0xbc6db7e03dc2a3d8U,
  0x3c1e47f03de9ebbeU, 0x3d277b94bd70b418U, 0x3c8e0638bda6ffeaU, 0xbd7abcf4bdda568aU,
  0xbde477543de83a06U, 0xbd211588bddc1ba0U, 0x3d66934c3cfa7bb8U, 0x3b1e02c03c97b420U,
  0x3dbbae0c3b99c080U, 0xbc35f3a03dc94e14U, 0xbd5cc9603d4788b4U, 0xbdf0ec4ebdfa3e9aU,
  0x3d2fef28b992fc00U, 0x3c3b5b103de049e4U, 0xbb2abfc03d3ac050U, 0x3cfc4d00bd1d3388U,
  0xbd1057b8bd5c96fcU, 0xbde42b22bcf37e60U, 0xbc9bc520bdef4906U, 0xbd96c23ebd7b1228U,
  0x3d51d8683d9f0502U, 0x3db69fdcbdc18a00U, 0x3dbb9c70bdcdb6c4U, 0x3d8684acbd5a8da4U,
  0xbd93ccb83dc46e4aU, 0x3c3cbac03dd3d716U, 0xbcab47a0bd54b6c8U, 0x3daadc163d7db240U,
  0xbd5493cc3c5d9eb0U, 0x3d29f9d8bd8b1644U, 0xbdd940ae3da0dee2U, 0x3c929750bd004cb0U,
  0xbc136d60bdc4427eU, 0x3d1d4f14bcd0a0f0U, 0x3d62d984bd954d20U, 0xbdd338fa3da47baeU,
  0xbd5cfce4bd89eddeU, 0xbcd92230bd950da0U, 0xbd0bc4903cd233e8U, 0xbd3be11cbde40ce2U,
  0xbd91982cbd645724U, 0x3d96c5243d389684U, 0xbd8ffc62bd994476U, 0x3d5fde483de56898U,
  0xbdba88a2bca7f8e8U, 0x3b1e86003dff3eceU, 0x3de23434bdce085eU, 0xbc2d6cd03d544bacU,
  0x3d8498663d9f7b8aU, 0x3dd4ec38bd410a14U, 0xbd99d4603d157cf4U, 0xbd142788bce6daf0U,
  0xb933b0003da90b8cU, 0xbd2bf348380b1000U, 0x3dc3b0ac3d851deaU, 0x3def4e64bd9bd576U,
  0xbdb87d54ba3a9300U, 0x3d875106bd90b4faU, 0x3d486a34bc9c3a58U, 0xbd73ebc83dca8232U,
  0x3cccb7583d839d08U, 0xbda4fc303d828d46U, 0x3d58ecfcbde1604cU, 0x3d90c574bd0c3a44U,
  0x3cbec9d8bdec7c2eU, 0x3d8d365e3da31f88U, 0x3d4d24283db21b1eU, 0xbcc64080bde8c296U,
  0x3da08c803d4bf560U, 0xbd495b78bbff6e80U, 0xbb048bc03d8aa8f0U, 0xbcab69e03cdb1958U,
  0xbc9cb5183dfb9232U, 0x3d77c0e43cdb1630U, 0x3df01360bb5ae580U, 0xbc3ed840bdd3dc32U,
  0xbd8060ae3df134ccU, 0x3d8c81303b6f3bc0U, 0xbcaa68c8ba5fb300U, 0xbdc259ecbdbffc46U,
  0xbd95fc6a3d2175c0U, 0x3d787084bdb25cfeU, 0xbd86a2ae3d654f28U, 0x3da929de3db94ab4U,
  0xbdd40c263d735afcU, 0xbddaff5c3d19969cU, 0xbcb9d3783de74ed6U, 0xbd2d8c7cbda283daU,
  0xbdf0efe23bb8b520U, 0x3dd4205ebdd33656U, 0x3d602294bdc36b4cU, 0xbc5f74f03d92d158U,
  0x3d80489ebddfe292U, 0xbb848760bc4b0330U, 0xbd8cf6903cb577a8U, 0xbde4c6843dfb47bcU,
  0xbd815df83de82af4U, 0x3c8a0aa0bda9be9cU, 0xbd43ada83d0e33acU, 0x3dcd88523d9d7330U,
  0x3d9a4d103df4556eU, 0xbd16441cbcfeeb20U, 0x3dad14ca3dd56d54U, 0xbd8f59bc3d07c308U,
  0xbd9ce6763deac584U, 0xbc74d6a0bb92af00U, 0x3d818fd2bdbffa18U, 0xbd941f60bdb502deU,
  0x3dfd575cbd548d30U, 0x3de5ceacbdf63814U, 0xbdd97dc8bd17068cU, 0xbd9fcfe2bb83c880U,
  0x3c9efef0bcfea0d8U, 0x3dab08603de10958U, 0x3da618f63dd9ce1eU, 0x3d6cbfc03d4f9438U,
  0xbd99b1763d85997aU, 0xbd996deebc5f4330U, 0xbdd3fc183d8c77aaU, 0x3bba13e03d8b883eU,
  0x3b662ec0bbe1b6c0U, 0xbdc10ac0bd151614U, 0x3da218caba638500U, 0x3cce0b603daef096U,
  0xbd881284bc79ae30U, 0x3c06dd30bdfe3728U, 0xbd954568bdf03a1eU, 0x3da196123d174eb0U,
  0x3c884038bc158520U, 0x3c84ae983d07228cU, 0xbdf6ff32bcc778f8U, 0x3d9d0306bdb805caU,
  0xbcc1e638bd544ff4U, 0xbc5a1a10bdb8047eU, 0x3d88fe243dc3c304U, 0x3cd88b08bdade71eU,
  0xbd95f1ac3ccb5928U, 0x3c027370bcc52e98U, 0x3df53d783d63a7acU, 0x3da231ca3d571490U,
  0x3d059230bc979368U, 0x3dcce17c3d70d1e8U, 0x3d3effbc3df1f374U, 0x3d3bc8e8bdeb950aU,
  0xbd487828bd2d3454U, 0x3d4f08883d95ee98U, 0xbdb3e6fcbd1c1facU, 0x3d514c843be86e40U,
  0x3d2652443d2d1548U, 0x3c8a5f503d051614U, 0x3da9104abdd13718U, 0x3ca7ffc03c8a5030U,
  0xbded48a43dcba88aU, 0x3de9ce9c3be4d5e0U, 0x3df5a16ebde815f2U, 0x3d647a2c3de69528U,
  0xbde6cd5c3dc6701cU, 0x3d02a4343dd56366U, 0xbd1bc44cbdd23992U, 0xbd979d443cfc6218U,
  0x3dafc97abdf23760U, 0xbd5875a83d4c0b94U, 0x3df4d1a6bccd86e0U, 0x3df4261abce5b6c0U,
  0xbd1089143dfadfd6U, 0xbde810063db4d850U, 0xbd12a46c3de89066U, 0xbc9b1058bc354fc0U,
  0xbdff9926bd7dcbc8U, 0x3d5081a83d75a0e0U, 0x3da71a56bc2bf3e0U, 0x3dd0e470bde38e1aU,
  0xbd1d39a03d869a68U, 0x3ddd712cbd851c88U, 0x3deb66ea3d5bea8cU, 0xbcb1cfa03a627300U,
  0xbd9dbcb8bd9e81beU, 0x3c0c4f30bd484c10U, 0x3d84b328bd318558U, 0x3da13dcabd3ff34cU,
  0x3c3bf4c03cea36f0U, 0x3c177c503de7a594U, 0x3d42944c3d8fd8faU, 0x3da58b32bd7cec94U,
  0x3cc676a8bd2b64bcU, 0xbda672a4bd81451cU, 0x3dcf770c3c9abfc8U, 0x3d8036dc3d59c6a4U,
  0x3d98f59a3db7ad08U, 0x3d73e8503dfe177cU, 0xbde0f4c6bc3de6c0U, 0x3d30979c3bec1600U,
  0xbde2254ebd778ca8U, 0x3d3f6b743dde228cU, 0xbdad9dc0bd5da678U, 0x3c0b41e03d9b3326U,
  0xbd3768c43d7b95f8U, 0xbdf2cf683c541bf0U, 0xbd34c7043d2bcf70U, 0xbc4b8e903dfaee88U,
  0xbcc17f80b9b62c00U, 0xbde1f49e3a29c600U, 0xbd2686cc3d0d7c30U, 0xbce28ec0bde24410U,
  0xbd8c18febca5d2f8U, 0x3d2079303dbd1470U, 0xbddd46ec3d8bca0aU, 0xbbcb65a03d96f040U,
  0x3cafaed83d803a98U, 0xbc5069403c865cd0U, 0x3d8f420ebd69b1b8U, 0xbdbbc08e3de832b4U,
  0x3da4a9c2bd328e0cU, 0xbdc910b03cf10648U, 0xbd06d6c03bc5e560U, 0xbdf4eb183d8f9efaU,
  0xbd9ca70e3d013560U, 0x3dec01febd654e3cU, 0x3df018c63dc31738U, 0x3df6aaacbd6c0400U,
  0xbdf56a003d073044U, 0x3cbf41f0bb4eed40U, 0x3dd8a6943bd9e020U, 0xbd68776c3c835898U,
  0x3bf0a9603d157a70U, 0xbdca622cbd03cab8U, 0x3df0a8c03df22070U, 0xbc97f9083d52f418U,
  0xbdaa27ccbd98a854U, 0xbd8c74a63c908750U, 0x3cef6d383b801ac0U, 0x3d87f5ba3c22aa30U,
  0xbb5cea80bdfcb226U, 0xbd2b2674bde5c112U, 0xbb9f9400bc380390U, 0xbd0a1de43dcb88b4U,
  0xbdb3ca963d3cb8e8U, 0x3dd464eebc96b0b8U, 0xbdd91ceebdb3f40eU, 0x3d16998cbd9aadaaU,
  0x3b8120a0bd8c6348U, 0x3d806362bde5a91cU, 0x3d9dcb7e3c8da208U, 0xbd6b46e03d5e8764U,
  0x3cef6ab83c57bd70U, 0x3c540020bdac0312U, 0x3d881a52bde9c25eU, 0x3d88ede2bd40b05cU,
  0xbcc1bf303db673d8U, 0xbd4459b0bce39230U, 0xbd2c219c3d479e70U, 0x3d7eb2283ae6a480U,
  0xbd83df423d40c1ecU, 0xbd8468823be99b60U, 0xbdd3cb923c8a9a48U, 0xbd5477303dc6e36cU,
  0xbd06d0483d9bbafaU, 0xbdb93530bc8ab868U, 0x3dc56424bda79544U, 0x3cdaa428bd929afaU,
  0x3dcb6318bc8807b8U, 0xbca6e830bcf552d8U, 0x3db265dc3dbcbb72U, 0xbbd0e6203dfad116U,
  0x3dc938eabdc5ee6aU, 0x3dad879ebdc20776U, 0xbcf44fc8bd2dc1a0U, 0xbd34fa383c2ad0e0U,
  0xbdbc2ab03dbf3f14U, 0xbb9d7880bcb0b3b8U, 0x3d7c4cb4bce12868U, 0x3dd25d9a3dda7abeU,
  0xbdf01b143ddcffb8U, 0x3de448ea3beaf520U, 0x3d22aadcbdbe5f8cU, 0x3d906cd83da743e2U,
  0xbc5764d03d7b6398U, 0x3dfb38a43d607690U, 0x3d73162c3dcbe95aU, 0x3d9e74a03d2316b4U,
  0x3c3d43a0bda7a428U, 0x3bf5ae203d006d68U, 0xbdd67ff0bd8a0a14U, 0xbdaf57febc365a50U,
  0x3dc3983c3d97b924U, 0x3d307c70bbd4cd20U, 0x3dad2bee3cb859c8U, 0x3d29d234bdf491a8U,
  0xbde775703ddcf4f6U, 0xbd697dc43d946268U, 0xbddb27283d67b5b4U, 0xbdf367863d414100U,
  0xbd8043eabc71c3c0U, 0x3dc6f068bc0ff050U, 0xbd4f5a0c3df7c278U, 0xbc2964a03d337720U,
  0x3d3f8ea43db938d6U, 0x3d98c7b63c3f78d0U, 0x3c936598bcab42b8U, 0x3d9c546ebdc49f04U,
  0x3d90f18ebd55ed5cU, 0xbd9ab27e39fc3400U, 0xbddd10fc3d67cbecU, 0xbda84024bdbefd2cU,
  0x3d7e712c3dbc73d8U, 0x3d691bf03da9c14cU, 0x3dd757a0bd296978U, 0xbd6ccef0bd2a9abcU,
  0xbd97b0963d38d230U, 0x3d9857e23dc1b03aU, 0xbcead7903db8c1deU, 0xbd810cfebd258408U,
  0xbded9b36bde9ccf2U, 0xbc8eb9c83ded12e2U, 0x3ddd63c43dfe844eU, 0xbdc3be483d8818c6U,
  0xbda2357abcaccbf8U, 0x3d42e1fc3b0eb540U, 0x3cec1cc03d9f7e16U, 0xbde95da63d5a705cU,
  0x3dd50db0bd115600U, 0x3a159c00bde488baU, 0xbc0050603d8f1a24U, 0x3db5d424bc861cc8U,
  0x3dc185a2bdf486a4U, 0x3da9a9543d2f1248U, 0xbddfd7643c1b7780U, 0x3de8363c3d684ca8U,
  0x3db875dabd0ae594U, 0x3dc6946ebdc481a6U, 0xbd8ec2983ded4296U, 0xbb116d403da1ce52U,
  0xbdbba78c3daea1e6U, 0xbdbd2cc6bd8aab6cU, 0x3d89b6dc3c2f7440U, 0xba0be8003d63c13cU,
  0xbc57a2d0bd54b088U, 0xbd81fad8bd040a4cU, 0xbb16c6c03de405a8U, 0x3d77ba343d4abc58U,
  0x3d21bf80bd9fe446U, 0x3d9eeb043c288610U, 0x3ddf53e8bde09e68U, 0x3d93be4c3c615ce0U,
  0x3da933123d874f16U, 0x3ce00aa03d1acdecU, 0x3d5079a03db7c870U, 0x3d5ad2e0bdda6c10U,
  0x3d94e81e3df41d94U, 0xbde83bd2bdda1228U, 0x3d9e341cbc089930U, 0xbd196310bcb3b4f8U,
  0xbdd0a3f2bd3039d8U, 0xbdf47884bd36e4c8U, 0xbcbfd068bd8fa4acU, 0x3cfe9fb83dc284deU,
  0xbd78d87cbd8d2e10U, 0xbb8f5f00bddfa8beU, 0x3d1f95f8bdfcdd2cU, 0xbdf8baf0bd120d5cU,
  0x3dbfd320bd2383d0U, 0xbda24a0a3dd4cd12U, 0x3ce122c0bd7bda8cU, 0xbdb0c540bd39f324U,
  0x3df007ecbd8d8eb2U, 0xbd4025c43dcd2750U, 0xbd93eb5a3c920c50U, 0x3d95260cbdba5014U,
  0xbda842fabd0a89f4U, 0xbd95fb46bbead300U, 0x3d7050dc3d3de508U, 0x3df7f8a2bd1e6a40U,
  0x3cd1ac083d4b3d24U, 0xbba692e03dff385aU, 0x3dadfb7abc873d90U, 0x3d3526e4bdc59fbaU,
  0x3c1eaee03df4d9c0U, 0x3dafb28abd625e44U, 0xbd703300bcdf51d0U, 0xbd9ed9ca3dc18afeU,
  0x3df17a363cf2cf10U, 0xbdf109903dcfe41cU, 0x3caa51803df3ca60U, 0xbd597bf4bd86f16aU,
  0xbda5fc94bd604f1cU, 0x3dda5bccbc746400U, 0x3dd775943d42aef0U, 0x3df57c003dff2c5eU,
  0xbcb6c8403db77562U, 0x3dc199223d5bdfb8U, 0xbdba1d3ebc56f930U, 0xbbf2e2403da3e2feU,
  0x3b6e90c0bba14e00U, 0x3d8c1fdabd4de288U, 0x3dd5792ebd130cb0U, 0x3dfe6b0c3c38edf0U,
  0xbd6c32403ca2f9e0U, 0x3d9eafb0bca08068U, 0xbd77352cbdf01ffcU, 0xbd20534c3d25679cU,
  0x3cd679183d710128U, 0x3ddc99eabd21a0bcU, 0x3dacfd2a3cbf8710U, 0x3d80e686bc7aca30U,
  0xbdcf7c2abdeeca88U, 0xbdb4b4ce3de04208U, 0xbde8bd583d8c949cU, 0xbd6b2b1cbd427ae0U,
  0xbddaa2dc3d2fae04U, 0xbd6b2450bd971992U, 0x3d4de97c3c4ce6a0U, 0xbde0f458bdc60264U,
  0x3d4dfd783d223e80U, 0xbde7448e3d293fe4U, 0x3d7502243c863380U, 0xbdbcf9aabdcf2018U,
  0x3df04d2ebdec0640U, 0x3dc9f66a3dd89226U, 0xbc24df50bd788a20U, 0x3c3c1860bdaf7b82U,
  0x3d3769743be06940U, 0xbcf56930bd364c0cU, 0x3d3daefc3c633be0U, 0xbd253c183c9ca270U,
  0xbdc5d666bc968180U, 0xbd5747cc3dd97d2eU, 0x3df17754bd9c0d28U, 0xbdaa03063db2eb58U,
  0xbcf630f03de14310U, 0x3d3706ac3c8816a0U, 0xbd975434bda3fa1cU, 0x3db2509a3d75398cU,
  0xbde5f934bdbb0b8cU, 0x3dba3ea63d9f841eU, 0x3cb6b4983d31f184U, 0x3d8be424bdbcc850U,
  0xbd26fb843d97e148U, 0xbdb0a0d23c8633c0U, 0xbd4039803d8449f2U, 0xbc35da20bd93ad76U,
  0x3ceb0078bdeaab4eU, 0x3db5358cbd240cf0U, 0xbd48ac1c3c862f20U, 0x3def7446bde44486U,
  0x3dd68e46bdb6c2acU, 0x3da35c5ebd829f4cU, 0xbbfdfb20bdb0537aU, 0x3d79c220bdcf700eU,
  0x3ad56900bde58ba2U, 0xbd846dbebdd3e170U, 0xbd883a4e3ddbbdeaU, 0xbd4490843de353deU,
  0xbd792b80bdbca8eeU, 0x3dc5e1c43bf1fc00U, 0x3ccea1c83dad06faU, 0xbd227cd0bddcccd8U,
  0x3c18a790bd406464U, 0xbde0dd4e3dc23396U, 0xbddd2102bd8b5dc4U, 0xbdf0b74c3dae3b80U,
  0x3d82aaf43d64d27cU, 0xbcee5e18bd8a2696U, 0x3d1604643d2779d8U, 0xbd8a9f00bcc8c8f0U,
  0xbd4d8a683dea1cfeU, 0xbcf95b98bb006d00U, 0xbdf8d4243ddac428U, 0x3d24f4f0bc922308U,
  0xbde8c810bc06d0b0U, 0x3db7b2603d9d3062U, 0xbd4d1b70bdf9cf68U, 0x3d1308ac3c5c4bc0U,
  0xbd816e463db3d558U, 0xbd457d8cbdfc3bbaU, 0x3d9b2df03c8c48a8U, 0x3be1b9e0bddbbfb8U,
  0xbd4fa428bdf5cbfeU, 0xbd8079f0bd3cc4d4U, 0xbd1513543c8ef7a8U, 0x3dba492cbd852b66U,
  0x3d3aec5c3b351040U, 0xbd91ddc23d9723caU, 0xbccc6910bdf5a132U, 0xbd7e81b83d055964U,
  0x3ce87a88bb92c3e0U, 0xbdf5f2ec3d20b768U, 0xbad34980bc700410U, 0xbd6f2db8bdf9c808U,
  0xbd43a15c3df851c6U, 0x3d254288bb26fec0U, 0xbc4e5020bd5859d0U, 0xbdb6e6acbdf89110U,
  0x3da8ba52bc874b20U, 0xbcb73d803baf04a0U, 0x3c04f1903df08b5aU, 0xbceddb603da5f7e4U,
  0xbdc361c63c87d908U, 0x3d1b4518bd4576c0U, 0x3cabc8903c418e80U, 0xbd9297a6bcd11af0U,
  0x3c5847a03dfaaa32U, 0x3df3ce7abd23ff04U, 0xbc8b08383d67d50cU, 0xbde57c503bb935c0U,
  0xbd897a8a3dfcb624U, 0xbbed4300bc2d7e10U, 0x3d1f45f43dca889eU, 0xbdbbd5fcbdfe906aU,
  0xbd48695c3d36ee2cU, 0x3d703db43da5d444U, 0xbaaccf00bd805ecaU, 0xbd81c2d4bda95466U,
  0xbda0fb08bc1eb4b0U, 0xbd3349d83ce2a830U, 0x3b95cb00bdffee00U, 0x3db8b09abd06c660U,
  0x3d93d9ba3c64e6d0U, 0xbcc63418bc873228U, 0xbd5072743df76d68U, 0xbdbd472ebd94cc5cU,
  0xbd5f5ba83c9c6220U, 0xbd52dda03dcb8700U, 0xbdc13ae4bd8ccc6cU, 0x3b25a5003ddbf5eeU,
  0xbde11198bc70e540U, 0xbdcc116e3d8dd5b0U, 0xbba8eaa0bcc51bc0U, 0xbd0d70943cb2d560U,
  0x3d0deca8bdda8d90U, 0x3dc06350bdde2434U, 0x3db0dcacbda94726U, 0x3c87e2c83d65ffd8U,
  0xbd86238ebcf838c8U, 0x3dc36014bdec9e7cU, 0xbd2a72643d84fdaeU, 0x3d8c4a3e3df93e8eU,
  0x3b284840bdcd9ae4U, 0x3dfa9cfc3da1bf5aU, 0x3db2f14c3d2eab18U, 0x3da386a0bc044a00U,
  0x3d999d0ebc1dc980U, 0xbc7e2e603df76da2U, 0xbd672d7c3d601674U, 0xbdb005f43dbeb642U,
  0x3c490d50bdef6d66U, 0x3df8ec80bd86cc22U, 0xbd2b11203da05f0eU, 0x3d84f0f63d8406eaU,
  0x3dfdf6bebd8a7db4U, 0x3dcdd4eebd9726beU, 0x3d817d3ebc883048U, 0xbd818f343d6ac770U,
  0x3ca777a8bdb95000U, 0xbc6850b0bdb9abbcU, 0x3d77e9b4bcca5510U, 0x3de27b0cbc9e8ac8U,
  0xbddca2a6bdaaa89eU, 0x3dee2eee3d1b7138U, 0xbcc60d783d031e50U, 0x3d2e13903d27b744U,
  0x3d87cdbcbd837284U, 0x3dd3a6dcbc92d550U, 0x3db6348c3ba13f80U, 0xba650d00bc115980U,
  0xbb8b4ce03c965ad8U, 0xbc009bd0bd70dd4cU, 0x3cbb4218bde2f76cU, 0xbc9aec18bdbd5ab0U,
  0x3b9150a03ceace68U, 0xbc369bd03d960ee4U, 0x3cd85d90bdbe09f4U, 0xbd5b0e54bd9bb832U,
  0xbce9f768bd058b28U, 0xbdaac2563cbc7538U, 0x3df9e72e3d781a80U, 0x3d19aa4c3d8e5a6aU,
  0xbde717e0bcf775c8U, 0xbccf44183d4978d8U, 0xbde72ce2bd9dda14U, 0x3d085c403cea8940U,
  0x3d032eb03d2cd8d0U, 0xbdc77e0cbd539e10U, 0x3d6dc2783d6e1ff0U, 0x3c9717903dcf7c5aU,
  0xbcdf4bf03d012f90U, 0xbdafce00bd3fcf94U, 0xbab7d480bcce13d8U, 0xbd25c800bd7744a0U,
  0xbdbc39783d29e5fcU, 0x3d913ab03de591c8U, 0xbd7e286cbdb90802U, 0x3df6c86a3c029940U,
  0xbde221debddd52d6U, 0x3b86d6a03cab8128U, 0xbdda2a60bdcb6296U, 0x3d9eb5d83da68406U,
  0xbd9b4220bd575644U, 0xbd9429483df6210eU, 0x3c47e6c03ca0d090U, 0xbdffccec3d537e70U,
  0xbd8eb590bdc42c8eU, 0x3dbe42c6bdece7e4U, 0x3d51c184bc9f3258U, 0xbcbf27f83cc407c8U,
  0x3df6c46a3dabe52aU, 0xbb384c00bcf25c60U, 0xbd9d8fcebdd28ab2U, 0xbd9dea5ebdf39412U,
  0xbcb0c8f0bdff575aU, 0xbce0d5e0bd8cf842U, 0x3dd71c983c5c9db0U, 0x3de58fc6bcd5cf18U,
  0xbd70c728bd664610U, 0x3bd3eda03a868780U, 0xbdee0320bc470310U, 0xbd8eb4e4bba6df40U,
  0x3d66a4a03d7e5f58U, 0x3d508bc83ccdd5e8U, 0xbd1ba3843c31f8b0U, 0x3d9d853e3da08742U,
  0x3db3a71e3d11fa20U, 0x3de4a4b23bc4ed40U, 0xbdfca9ba3d26446cU, 0xbdc929a03d8166aaU,
  0xbd0c56043cd81840U, 0xbd8fd7ba3d2279d0U, 0xbdb45df03d96de00U, 0x3d96507e3d60b074U,
  0xbdb0fa763ccd30d8U, 0x3d9fc2023de4f3deU, 0x3dc42d8a3df0971cU, 0xbdf9347e3bcc4f60U,
  0x3bd6ece0bd5ae494U, 0xbdc4c3423dd7ad18U, 0x3de554643d228c74U, 0x3dcf61c6bdd5b706U,
  0xbdcc4a02bc2e2e00U, 0xbcede7d8bddf6c94U, 0x3cd45b683dd16142U, 0xbcfaf9883ca14d90U,
  0xbd559a483d9e9e44U, 0xbdd98eec3d97b020U, 0x3dcfcf6abb422dc0U, 0xbdac5824bc6207a0U,
  0x3c85c6b83d2b0e68U, 0xbd2c2c1c3d557568U, 0xbd3fddccbdc72e92U, 0xbc8e69303d42f150U,
  0x3b00db003a279c00U, 0x3d8bc748bddb4b64U, 0x3de0fde2bd613170U, 0x3c2674f03de8d708U,
  0xbc87f390bd2a9c00U, 0x3d14d1483d3ebe78U, 0x3d3f30483dafcc5eU, 0xbd8f216e3c438a60U,
  0xbd6097e4bdc28900U, 0x3cf70778bdcf84ceU, 0x3d6a6ac0bd490164U, 0x3d7f2cbc3d099ef4U,
  0xbc4b91303d54b678U, 0x3cf879b83dc1c2b2U, 0x3df9611cbd83bc1eU, 0xbdb402babd846346U,
  0x3da0da443d7b6f20U, 0x3c460990bcb8d4a0U, 0xbda61dec3d62ea28U, 0xbda1c8923cf90a78U,
  0x3dc503bebdf994ccU, 0x3df0bd20bdf76eceU, 0x3d8c6b52bdea09eeU, 0x3cf817b8bd53c22cU,
  0x3d0a32a8bcb3a2f8U, 0xbd94c94c3ceb86c0U, 0xbdaed882bcfb4ab8U, 0x3d30ae2c3df4b77cU,
  0xbdf84346bdd13f1eU, 0xbda58eec3dab122eU, 0xbd9b59f2bdd02c66U, 0x3d7d9e303d00d014U,
  0x3de4898ebdda07b4U, 0x3ddef8583de42e24U, 0x3d511278bd536734U, 0xbd429f683da4783aU,
  0xbd939234bd8157f0U, 0xbcf2ef303cc8f120U, 0x3d2824e83d38fc34U, 0x3c1df4b0bd84eb20U,
  0x3d4ff9dcbdd64cfcU, 0xbd878582bd58a4c0U, 0xbdcd59c23d511afcU, 0x3dd17596bdb225e2U,
  0x3d4763603dcd7d5cU, 0xbde9cd5cbdd4f63eU, 0xbd31223cbc74b250U, 0x3d7f24803d0c1150U,
  0xbc96b8c03a4a8e00U, 0x3d83163abd055d68U, 0xbd98892a3d28e880U, 0xbc50add03d68dcecU,
  0x3db9886ebda01fcaU, 0x3d6aa828bdbda2c0U, 0xbd5f6dc43d236948U, 0xbc9673a83dfede88U,
  0x3b293640bd2fa5a0U, 0xbd1a1244bdfaabe8U, 0x3d80388ebcd6af60U, 0xbc641360bbb62820U,
  0xbd64a6b83bac2980U, 0xbdcc7f4cbc284a20U, 0x3cb46bd0bda460a8U, 0x3ddd072e3d204e9cU,
  0xbde3f0e0bd49d724U, 0x3c96ca80bda757f4U, 0xbdb7f768bc8fde60U, 0xbdde9cc8bcc91e18U,
  0x3d925e30bded4ed0U, 0xbc8ca098bc6b41a0U, 0x3d1779043d716318U, 0x3bdcdfe03df4afd8U,
  0xbc5a44903dbad5d2U, 0xbc9fdca0bdc93b68U, 0x3d48dd403db3ac3cU, 0xbda7a0023d057c7cU,
  0xbd4e2188bc445860U, 0x3ce4d9483d558e18U, 0x3d89019c3d883448U, 0x3c716210bd51d3e8U,
  0x3cb622483dd9a77aU, 0xbdd1c2b03d97be28U, 0x3cfbdc783dbca9f4U, 0xbdbe08583de5f1a2U,
  0x3df24ffebd0b0fd0U, 0x3d8ca97c3c3ee460U, 0x3d3ef0d43c9961b8U, 0xbcf91dd83c7b1b80U,
  0xbd9ba3943d9ed2aaU, 0x3c1c6fc0bce417f8U, 0xbde0b9ce3bfbec60U, 0xbdecf6babbf86300U,
  0x3df9b1e83db6ebd4U, 0xbd8136b2bd8f92ecU, 0xbdf025d83da0f188U, 0xbddabb78bc0b34e0U,
  0xbd04a9b4bd1e34c0U, 0x3dd1073ebd2c3b68U, 0x3dbe3bd23cba1d88U, 0xbdff2e08bd9e2ea8U,
  0x3dd07b18bda752aeU, 0x3c4637a03d2d597cU, 0x3d640fe03d8f7b70U, 0x3cdf93803bf60a80U,
  0x3d04f6dcbd4f2650U, 0x3d7c2b783d0e7f1cU, 0xbdfb7cc63d11bc00U, 0x3d3a52303d7782b8U,
  0xbca10bb0bdd358f6U, 0x3db9ee56bd952738U, 0x3d88e272bdc170beU, 0xbd97d97c3df5e902U,
  0x3d2269503da6193aU, 0x3d2bf9603ce197c0U, 0x3c355c80bd754024U, 0x3d95851c3da3784eU,
  0xbdbb1d103ded7b50U, 0xbdc771543c854d68U, 0x3d3224fc3da290ceU, 0x3dea3d7a3d3492d4U,
  0x3d5474e0bd9a19deU, 0x3d361790bd101090U, 0xbd0c25b8bdb2e8eaU, 0x3d74bc8cbce59018U,
  0xbd1b11883d3fb9e4U, 0xbd0dd8583d376064U, 0xbdcfe89a3d7f1398U, 0xbdc94a20bc1715d0U,
  0x3daa055cbc805280U, 0xbd99a3483d340808U, 0x3d8ec5cabdc1a862U, 0xbd860494bdb06050U,
  0xbddbdf263da19442U, 0xbd9c71e0bdd3199aU, 0xbdeb55883cf15990U, 0xbd90a4bc3dfb5e72U,
  0xbdc876a03d5e53f0U, 0x3d1553a8bcf4f388U, 0x3d197298bdbcefb4U, 0xbd1f49643d7c543cU,
  0x3c87a510bdd0b67cU, 0x3dac13c0bd6a8c94U, 0x3bd81960bdc83b36U, 0xbd123364bd46ca54U,
  0xbdd1d82c3dcf2d8aU, 0x3db2338e3da5dc7cU, 0xbd8df7de3cac3da0U, 0xbdec3888bdeeebc6U,
  0x3b097c40bddfdcf6U, 0x3dba6d82bdd04d16U, 0xbd8b7d4a3daebeceU, 0x3df11dbebdbc3eeaU,
  0x3dcee2d6bd715b8cU, 0x3da5e3ea3dfec924U, 0xbd2648d4bc596ca0U, 0x3d9ef7d63de78ba8U,
  0xbd34bd1cbd504550U, 0xbc9b94d8bdb76686U, 0x3d2056103d4efa14U, 0x3d076234bdd9541cU,
  0xbcf0e4a0bdc54a34U, 0xbdeda7803d21c56cU, 0x3c06a2e03dc13b60U, 0xbdafa64c3dbaba06U,
  0x3df8aa6cbd73e094U, 0x3d9bb8b83d83030eU, 0xbd9a28babdb3bbdeU, 0xbd520bacbd5eab14U,
  0x3bfdfb603deae426U, 0x3d977ac8bd83a9b8U, 0x3de1526abd50da60U, 0x3c65db70bdd43da0U,
  0x3d978662bd91c4a4U, 0xbd9b7c7c3df45200U, 0x3d78bc983dd630dcU, 0x3d6df5d03d7f7958U,
  0xbd5171e8bd6f862cU, 0x3defc4f2bd8b6aa6U, 0xbd4644fc3dbb94a2U, 0x3de00c683d7cca3cU,
  0xbd45e848bdd8d114U, 0x3d44cc68bdcbd768U, 0xbdb2b4483ddecf40U, 0xbd0960c83df926b2U,
  0xbd9d5e6abdeaf6f0U, 0x3d8e24c8bd04626cU, 0x3d96edae3dc46ffcU, 0x3d849752bdc43abaU,
  0x3dd445323daa63b6U, 0xbca01c183dacc25eU, 0xbc3ef8e03dec6fd4U, 0xbcbe69783c8f6c60U,
  0x3c1e6270bce94f88U, 0x3cae22c8bbd17980U, 0xbd9da734bd4206e8U, 0xbd9dbd44bd7643f4U,
  0x3df328b4bcb3d900U, 0x3dd1a276bdf77278U, 0x3df88e9c3d7efe5cU, 0xbdfbd2c43ddc6386U,
  0x3df36952bb94e2e0U, 0xbd980748bdd3be10U, 0xbbf38200bc517120U, 0x3d71d578bd378da0U,
  0x3d9d28e4bd725a1cU, 0xbd4c19843dce8da4U, 0x3d6b4184bd3975e4U, 0x3cfa55803dfbe6a0U,
  0x3df6ea823d44262cU, 0x3dbcb110bd97d2caU, 0xbd9d15583dae528eU, 0xbdd4aea8bd0e6508U,
  0xbda3ab58bdbf47b4U, 0xbdf00648bda03c4eU, 0x3c7922603d969326U, 0xbcf27620bdb31fe6U,
  0xbd26e32cbd15087cU, 0x3d7172cc3d0cf028U, 0xbde19e0a3d56e24cU, 0xbd1449d4bda37b24U,
  0x3d7e58f43d34baacU, 0x3da95dc4bdfa1d2aU, 0xbdaff092bcbfaf90U, 0xbdbc6902bd16164cU,
  0xbd63e760bcd85ed0U, 0xbd967aacbd48de28U, 0x3cfd0e58bd5225b0U, 0x3d861a82bdf82226U,
  0x3d81cbe8bd61b620U, 0xbc9c3de83d702a70U, 0x3d2942ccbdc19266U, 0x3deb2bb6bc8a8780U,
  0xbc974ba03db45f32U, 0xbd3192c83d5633acU, 0x3d7c3ce4bc240be0U, 0xbde86420bdfe4e0cU,
  0x3dce3868bdf494beU, 0xbdf7bf06bcd62830U, 0xbd1c5dc4bdb14656U, 0x3dfbb7603db70c2cU,
  0x3de7b69ebd481ae8U, 0xbdfd1754bdf6bee8U, 0xbde1ce38bbf20ba0U, 0xbddbf2ec3de78132U,
  0xbb92cd00bdd7961aU, 0xbc33a380bdcbedb0U, 0x3d855a18bb760640U, 0x3d9554503bbb9ac0U,
  0xbd927d28bcdfdab0U, 0x3d10f6fcbd180f10U, 0xbc7f1710bdc93a46U, 0xbb8618c0bda29c2aU,
  0xbc78b300bdcb7d34U, 0xbd2d3980bd500f04U, 0x3da35c583d57c244U, 0xbdc5f9a83d987d54U,
  0x3d1affc43dd04820U, 0xbd8daffcbdfcd7dcU, 0x3d88a9003d5b5004U, 0xbdb488b4bd79a5c8U,
  0x3dd232f23c97f360U, 0x3d5cd25c3c723150U, 0x3db3e37cbdbeae92U, 0x3d324c983d3d9860U,
  0x3d2fa2983de28224U, 0x3d5ae25cbdf4e33aU, 0x3dd70aa2bdf86d86U, 0xbdf5c0dcbdd50e00U,
  0xbcfee4d0bd6e91f4U, 0xbdbe1ff23c97a0d8U, 0x3d8bdeaebd2b7d38U, 0x3db426be3d993754U,
  0x3cb1af90bdaa6f10U, 0xbc593d80bdd58b64U, 0xbdfc885a3ddd383aU, 0x3daef484bdc5feecU,
  0xbcb5d2803dfab152U, 0xbdd98d223df01f10U, 0x3dcaac963d2f3bccU, 0x3dc0866a3dc8eb7eU,
  0xbcc79f603cd57c18U, 0xbde5ac603da7b2aaU, 0xbcf4e438bdfd87c4U, 0xbdf3dd7c3d162c24U,
